const unsigned char model[] = {
  0x1c, 0x00, 0x00, 0x00, 0x54, 0x46, 0x4c, 0x33, 0x00, 0x00, 0x12, 0x00,
  0x1c, 0x00, 0x04, 0x00, 0x08, 0x00, 0x0c, 0x00, 0x10, 0x00, 0x14, 0x00,
  0x00, 0x00, 0x18, 0x00, 0x12, 0x00, 0x00, 0x00, 0x03, 0x00, 0x00, 0x00,
  0xa8, 0x24, 0x00, 0x00, 0xb4, 0x1c, 0x00, 0x00, 0x9c, 0x1c, 0x00, 0x00,
  0x3c, 0x00, 0x00, 0x00, 0x04, 0x00, 0x00, 0x00, 0x01, 0x00, 0x00, 0x00,
  0x0c, 0x00, 0x00, 0x00, 0x08, 0x00, 0x0c, 0x00, 0x04, 0x00, 0x08, 0x00,
  0x08, 0x00, 0x00, 0x00, 0x08, 0x00, 0x00, 0x00, 0x0c, 0x00, 0x00, 0x00,
  0x13, 0x00, 0x00, 0x00, 0x6d, 0x69, 0x6e, 0x5f, 0x72, 0x75, 0x6e, 0x74,
  0x69, 0x6d, 0x65, 0x5f, 0x76, 0x65, 0x72, 0x73, 0x69, 0x6f, 0x6e, 0x00,
  0x0d, 0x00, 0x00, 0x00, 0x54, 0x1c, 0x00, 0x00, 0x34, 0x1c, 0x00, 0x00,
  0xe8, 0x1b, 0x00, 0x00, 0x9c, 0x1b, 0x00, 0x00, 0xc4, 0x1a, 0x00, 0x00,
  0xbc, 0x1a, 0x00, 0x00, 0xbc, 0x17, 0x00, 0x00, 0xb4, 0x17, 0x00, 0x00,
  0xac, 0x17, 0x00, 0x00, 0x2c, 0x00, 0x00, 0x00, 0x24, 0x00, 0x00, 0x00,
  0x1c, 0x00, 0x00, 0x00, 0x04, 0x00, 0x00, 0x00, 0x46, 0xe3, 0xff, 0xff,
  0x04, 0x00, 0x00, 0x00, 0x05, 0x00, 0x00, 0x00, 0x31, 0x2e, 0x35, 0x2e,
  0x30, 0x00, 0x00, 0x00, 0x28, 0xe3, 0xff, 0xff, 0x2c, 0xe3, 0xff, 0xff,
  0x62, 0xe3, 0xff, 0xff, 0x04, 0x00, 0x00, 0x00, 0x70, 0x17, 0x00, 0x00,
  0xd3, 0x0a, 0xba, 0x09, 0xff, 0x06, 0x0e, 0xdb, 0x0a, 0x24, 0x21, 0x09,
  0x05, 0x26, 0xf9, 0xed, 0x1e, 0xed, 0x09, 0x27, 0x1c, 0xb9, 0x28, 0xf8,
  0xdc, 0x07, 0xd7, 0xe6, 0x10, 0x2a, 0x07, 0x0b, 0xea, 0x46, 0x1f, 0xf7,
  0x33, 0x33, 0x01, 0xfe, 0xd4, 0xca, 0xdb, 0xf5, 0x16, 0xf7, 0x02, 0xf3,
  0xe7, 0x0c, 0x1c, 0x08, 0x36, 0xd6, 0x19, 0xd7, 0xef, 0xf4, 0x0a, 0xf0,
  0x37, 0x47, 0x38, 0x1d, 0xf0, 0x1f, 0xed, 0x18, 0xd2, 0xcb, 0x22, 0xfe,
  0xda, 0xd3, 0xe8, 0xe7, 0x3f, 0x1c, 0xf7, 0xed, 0xf1, 0x28, 0x1b, 0x34,
  0xf5, 0xd8, 0x21, 0x16, 0x3d, 0x08, 0x1c, 0xfe, 0xe7, 0x13, 0x06, 0xf3,
  0x54, 0xe1, 0x09, 0x13, 0x17, 0xd0, 0x00, 0xec, 0x0e, 0x27, 0x29, 0xc0,
  0xfe, 0xf3, 0x0a, 0x3c, 0xe5, 0x3d, 0xeb, 0xec, 0xff, 0x1b, 0x3d, 0x06,
  0x03, 0x15, 0x1d, 0x12, 0x06, 0xfb, 0x26, 0xb0, 0x27, 0xda, 0x2a, 0x2c,
  0xac, 0xcb, 0x11, 0x2b, 0x23, 0x20, 0xc4, 0xd1, 0x07, 0xf4, 0x08, 0x03,
  0xf2, 0x43, 0x31, 0xe0, 0x04, 0x25, 0xf2, 0xf6, 0x39, 0xc6, 0x0d, 0x22,
  0x05, 0x37, 0xfc, 0x03, 0x16, 0x2b, 0x01, 0xbe, 0x37, 0x13, 0x28, 0x2f,
  0xf3, 0xde, 0x2b, 0xec, 0xf1, 0xf7, 0x29, 0x0d, 0xcc, 0x48, 0xcd, 0x09,
  0xfe, 0xb5, 0xf5, 0x0d, 0x47, 0x30, 0x22, 0xed, 0x0a, 0xee, 0x35, 0xbf,
  0xfd, 0x1b, 0x13, 0xf8, 0x42, 0xf6, 0xf1, 0xa9, 0xe3, 0xf3, 0x00, 0x0c,
  0x45, 0xcd, 0xfb, 0xd8, 0xfe, 0xe8, 0x22, 0x11, 0xd2, 0x1d, 0xef, 0x01,
  0x26, 0xca, 0x1a, 0xe6, 0x11, 0x07, 0x2d, 0x0c, 0x30, 0xd7, 0xe8, 0x04,
  0x41, 0xe8, 0xe8, 0x29, 0x08, 0xef, 0x00, 0xc4, 0xfe, 0xdf, 0xf1, 0xfb,
  0xe8, 0x2b, 0x29, 0xf6, 0xf2, 0xf3, 0x2e, 0xe2, 0xca, 0x0b, 0xf6, 0xcb,
  0xcc, 0x19, 0xde, 0x24, 0x20, 0xe5, 0xb9, 0xdb, 0x26, 0x1e, 0x07, 0x1a,
  0xeb, 0xdd, 0xd7, 0x1c, 0x26, 0x0a, 0x23, 0x13, 0xd7, 0x00, 0x06, 0x1d,
  0xdd, 0xff, 0xe7, 0x2d, 0x38, 0xbe, 0x11, 0x24, 0xfe, 0x10, 0xf1, 0x05,
  0xfe, 0xdf, 0xc2, 0xf5, 0xf1, 0xf9, 0x01, 0xcb, 0xfe, 0x25, 0x20, 0xf0,
  0xf8, 0x1a, 0x0b, 0xda, 0x32, 0xc2, 0x1c, 0xe9, 0xe6, 0x25, 0xc3, 0x04,
  0xf3, 0x29, 0xde, 0xfc, 0xf2, 0x26, 0xf9, 0x16, 0x25, 0xdc, 0xce, 0xf4,
  0xac, 0xdf, 0xbf, 0xf5, 0x06, 0x26, 0xda, 0x1b, 0xcb, 0xfc, 0x09, 0x1c,
  0xf4, 0x54, 0xda, 0xe9, 0xdd, 0xcd, 0xd6, 0x1a, 0x41, 0x38, 0x12, 0xc0,
  0x03, 0xf7, 0x10, 0xfe, 0x0a, 0x1e, 0x35, 0x07, 0xfb, 0xcc, 0xf8, 0x18,
  0xf2, 0x02, 0x1c, 0xce, 0xb6, 0x1b, 0xca, 0x3e, 0x0d, 0x17, 0xeb, 0xe1,
  0xd2, 0x0a, 0xfb, 0xbb, 0xfb, 0x30, 0xcc, 0x0c, 0x01, 0x34, 0x4b, 0x33,
  0xce, 0x1d, 0x07, 0x0d, 0x1f, 0x0b, 0xf8, 0xf3, 0xc6, 0x46, 0x17, 0xb0,
  0xc6, 0x09, 0x0b, 0x43, 0xd4, 0x04, 0xaa, 0x04, 0xf0, 0x0a, 0xf1, 0x3f,
  0x98, 0xdb, 0x10, 0x26, 0x0c, 0xe1, 0xd3, 0xf9, 0x2c, 0x04, 0x45, 0xe2,
  0xd8, 0x16, 0xd3, 0xd3, 0x22, 0x1a, 0xaf, 0x21, 0x45, 0xd9, 0xf1, 0xff,
  0xc0, 0xde, 0x1e, 0x1e, 0x09, 0x0a, 0xee, 0x01, 0xdc, 0x0a, 0x05, 0xab,
  0xf2, 0xf7, 0x15, 0xfb, 0xed, 0x19, 0x22, 0xdf, 0x00, 0xdd, 0x1c, 0xcf,
  0xf8, 0x34, 0xcc, 0x4c, 0xb7, 0x1f, 0xed, 0x0c, 0x13, 0x13, 0xdc, 0xd0,
  0xe3, 0xd0, 0xba, 0x3b, 0x05, 0xed, 0x30, 0x06, 0x07, 0x18, 0xe8, 0x17,
  0xaf, 0x0d, 0x0f, 0xfc, 0xfb, 0x0b, 0xaa, 0xf3, 0xbf, 0x2b, 0xe0, 0xc4,
  0xd0, 0x38, 0xd9, 0x01, 0xc8, 0x0b, 0x13, 0x40, 0x1c, 0x05, 0x24, 0x0c,
  0x22, 0x22, 0x2a, 0x27, 0x15, 0xcf, 0x58, 0x0b, 0xf0, 0x2d, 0xd3, 0x43,
  0x26, 0xc6, 0xfb, 0x0b, 0x1d, 0x34, 0xc2, 0xec, 0x1b, 0x07, 0xe2, 0xd0,
  0xe9, 0x1a, 0x05, 0x18, 0xdd, 0xc7, 0xca, 0x1d, 0xf0, 0x38, 0x23, 0x0e,
  0x32, 0xf8, 0xd7, 0x28, 0xf6, 0x23, 0x12, 0xfa, 0xf7, 0xf4, 0xce, 0x28,
  0x07, 0xf4, 0xea, 0x18, 0xee, 0xf0, 0x24, 0x27, 0xd6, 0xe6, 0xcb, 0x27,
  0x14, 0xd3, 0xda, 0xdb, 0xd9, 0x45, 0x22, 0xea, 0x34, 0x22, 0x05, 0x54,
  0x25, 0x06, 0x32, 0xe2, 0x1a, 0x1e, 0x17, 0xcd, 0xf4, 0xbf, 0x12, 0x0d,
  0xfd, 0x1c, 0x04, 0x17, 0x06, 0x02, 0x2d, 0xfb, 0xd2, 0x14, 0x1a, 0x1a,
  0xbf, 0xe8, 0x19, 0xfb, 0xc3, 0xe9, 0xbb, 0xce, 0x02, 0x3a, 0xc9, 0x09,
  0x2a, 0x2f, 0x1e, 0x16, 0x2f, 0x41, 0x11, 0x25, 0x03, 0x11, 0xb4, 0x17,
  0xda, 0xfb, 0xf1, 0x06, 0xec, 0x17, 0x1e, 0x16, 0x19, 0x10, 0x05, 0x07,
  0x29, 0xf0, 0x1c, 0x0f, 0xc2, 0xde, 0xdd, 0x52, 0xfc, 0x11, 0x45, 0xf7,
  0x2d, 0xef, 0xfc, 0xd8, 0x22, 0x06, 0xc6, 0xcc, 0x13, 0xcf, 0x03, 0xd0,
  0x2b, 0xd2, 0x00, 0x25, 0xc0, 0xde, 0x34, 0xfe, 0x4c, 0x21, 0xfa, 0x16,
  0xf3, 0xdd, 0x04, 0x14, 0x30, 0x02, 0x1d, 0x10, 0x57, 0xed, 0x02, 0xf2,
  0x2e, 0xef, 0xec, 0xe8, 0xf0, 0x24, 0x02, 0xc5, 0x3b, 0x41, 0x05, 0xcc,
  0x22, 0xf6, 0xd4, 0xe3, 0xf2, 0x1c, 0x0b, 0xa3, 0x02, 0x29, 0x01, 0xd4,
  0xc4, 0xfd, 0x11, 0x06, 0x35, 0xc8, 0xf5, 0xb0, 0xe4, 0x3d, 0xf7, 0x39,
  0x3d, 0xf7, 0xa5, 0x2b, 0xd8, 0xcc, 0xe2, 0x2f, 0xa2, 0xea, 0xed, 0xf8,
  0x13, 0xe7, 0xce, 0xd1, 0xcb, 0x08, 0xab, 0xc3, 0xd9, 0xc2, 0xb5, 0x4e,
  0xf7, 0xfe, 0x97, 0xca, 0xdc, 0x09, 0x02, 0x0c, 0x0e, 0x25, 0x26, 0xf6,
  0x2d, 0xd2, 0xb7, 0x4c, 0xfc, 0x17, 0xf0, 0xe2, 0xd1, 0xf6, 0xbd, 0xf1,
  0x14, 0xfe, 0xfc, 0x09, 0xf5, 0x35, 0xda, 0xb3, 0xe7, 0xf1, 0x08, 0xe1,
  0xa9, 0x15, 0xc6, 0xeb, 0x1c, 0x21, 0x23, 0xb4, 0xfc, 0xef, 0x04, 0x4c,
  0xdf, 0x29, 0x36, 0xe6, 0xf3, 0x4d, 0xe3, 0x1c, 0x2f, 0xe1, 0xdd, 0xe7,
  0xde, 0x01, 0x21, 0x2f, 0x1c, 0x31, 0xdf, 0xb1, 0x0f, 0xd3, 0xc2, 0xd2,
  0x37, 0xed, 0x0c, 0xd4, 0xf4, 0x24, 0xf8, 0xfc, 0x17, 0x17, 0xf4, 0xf4,
  0x29, 0xff, 0xfd, 0x11, 0xfa, 0x09, 0x03, 0x4b, 0x23, 0xee, 0xbe, 0x28,
  0xd9, 0xe2, 0x3d, 0xec, 0x24, 0x0a, 0x44, 0xf5, 0xed, 0x34, 0x19, 0x16,
  0xf4, 0xf8, 0x36, 0x2e, 0x0a, 0x1f, 0x3a, 0xd8, 0x18, 0x1b, 0xfa, 0xfd,
  0x18, 0xf9, 0x66, 0x1d, 0xad, 0xfa, 0x26, 0xbd, 0xf1, 0xd1, 0x15, 0xbf,
  0x04, 0xc3, 0x11, 0xcb, 0xbe, 0xfd, 0xff, 0x09, 0xe2, 0xf5, 0xb9, 0xec,
  0x0c, 0xe4, 0x10, 0xf0, 0xf5, 0x15, 0x18, 0xe3, 0x40, 0x51, 0x1a, 0xff,
  0xbd, 0xfa, 0xf4, 0x21, 0x28, 0xd6, 0xd7, 0xe8, 0x18, 0xdb, 0x1a, 0xc3,
  0xf9, 0xf1, 0xcd, 0xde, 0x3e, 0x28, 0xf8, 0xe7, 0x17, 0xdc, 0xfd, 0xf3,
  0x08, 0x28, 0xf1, 0x16, 0x15, 0x2b, 0xfb, 0xc3, 0xc8, 0x1e, 0xf6, 0x16,
  0xc2, 0xd1, 0x00, 0xf6, 0xd1, 0x27, 0x0f, 0xbe, 0x53, 0x29, 0xfe, 0x2c,
  0xc4, 0xf9, 0xed, 0xf1, 0xd6, 0xee, 0xdd, 0x05, 0x35, 0xd5, 0x11, 0x24,
  0x12, 0x21, 0x5f, 0x0d, 0x17, 0xe2, 0xe3, 0x53, 0x06, 0x4f, 0xfe, 0x2a,
  0xfe, 0xfc, 0x43, 0x1b, 0x0b, 0xca, 0xe6, 0x3d, 0x18, 0xad, 0xf6, 0x38,
  0xba, 0x3b, 0xd2, 0x2d, 0xcf, 0x08, 0x33, 0x0d, 0x3e, 0xea, 0x2a, 0xda,
  0xee, 0xe0, 0x30, 0xfe, 0x12, 0xce, 0x06, 0xf7, 0xfe, 0x2b, 0xda, 0xc2,
  0x2a, 0xc9, 0x11, 0xe7, 0x19, 0x01, 0xc0, 0x12, 0x02, 0x31, 0xf4, 0x1f,
  0x35, 0xe0, 0xf5, 0xdf, 0x1d, 0x3d, 0xe1, 0x23, 0x17, 0x00, 0xed, 0xe8,
  0xd9, 0x2c, 0xfd, 0xe7, 0x00, 0xde, 0xc9, 0xfb, 0xf4, 0x08, 0x1c, 0xc4,
  0x30, 0xfa, 0xa7, 0x05, 0x1c, 0xf9, 0xc5, 0x43, 0x26, 0xe9, 0x29, 0x02,
  0x14, 0x1a, 0x01, 0x23, 0x0c, 0x0a, 0xeb, 0x16, 0xac, 0x0c, 0xe0, 0x2a,
  0x04, 0xce, 0xf5, 0x48, 0x06, 0x06, 0x02, 0xd0, 0x97, 0xf4, 0x03, 0xcf,
  0xa2, 0x15, 0x3a, 0x05, 0x21, 0xf2, 0xb9, 0xd9, 0x43, 0xc6, 0xe7, 0x0c,
  0x0e, 0xdc, 0xf5, 0xff, 0x03, 0xcb, 0xf4, 0xcb, 0xec, 0xfb, 0x25, 0x09,
  0x1e, 0x09, 0x2c, 0xf5, 0xf3, 0x12, 0xee, 0x26, 0x23, 0xee, 0xcf, 0xe0,
  0xda, 0xb3, 0x4e, 0x0d, 0x22, 0xe5, 0xf2, 0xfb, 0x08, 0x49, 0xd9, 0xe1,
  0x17, 0xb8, 0x02, 0x29, 0xc6, 0x33, 0xfe, 0xa0, 0x36, 0xda, 0x0d, 0x0f,
  0xf2, 0x2d, 0x1d, 0x2e, 0xdb, 0x33, 0xd9, 0x0f, 0xe4, 0x29, 0x4a, 0x15,
  0xdc, 0xa6, 0xf2, 0x1e, 0x11, 0x47, 0xf6, 0xdd, 0xf0, 0xc2, 0xf7, 0x0e,
  0x57, 0xd6, 0x31, 0xfe, 0x25, 0x0a, 0xdc, 0x16, 0x14, 0xe0, 0xc8, 0x21,
  0x31, 0xea, 0x21, 0xf4, 0x33, 0xe8, 0x2c, 0xaf, 0x17, 0xdf, 0x30, 0xbb,
  0x1e, 0x11, 0x1b, 0x1e, 0xe7, 0x20, 0x14, 0x2f, 0xd3, 0xe6, 0x29, 0xfe,
  0xed, 0x12, 0xe5, 0x0d, 0xa3, 0xf1, 0xb5, 0x0e, 0x22, 0x23, 0xcc, 0xcb,
  0x0f, 0xfe, 0xf5, 0x0c, 0xe6, 0xe4, 0xfa, 0x5b, 0xe0, 0xbe, 0x2d, 0x09,
  0x32, 0x41, 0x12, 0xd2, 0x37, 0xff, 0x24, 0x37, 0x2a, 0x01, 0x16, 0x14,
  0x00, 0xec, 0x1a, 0xf2, 0x30, 0x06, 0xd6, 0x0e, 0x2a, 0xfa, 0x1d, 0x05,
  0x50, 0x0c, 0xe6, 0x19, 0x04, 0xf5, 0x39, 0xdc, 0x01, 0xe3, 0x19, 0x2c,
  0x1b, 0x18, 0x49, 0xdf, 0xf5, 0xc3, 0x2c, 0xe0, 0x3c, 0xda, 0xb9, 0xed,
  0x3b, 0x3b, 0x2a, 0xf1, 0x09, 0x0f, 0x02, 0x22, 0x14, 0x2a, 0x13, 0x21,
  0x34, 0x08, 0x1b, 0x12, 0x3d, 0xcf, 0x1a, 0xd0, 0xc1, 0x32, 0xca, 0x19,
  0xed, 0xee, 0x03, 0xe3, 0x1c, 0x0f, 0xf6, 0xc6, 0x0e, 0xb2, 0x06, 0xed,
  0x14, 0x23, 0xee, 0x2d, 0xfc, 0xf6, 0x0d, 0xe0, 0x37, 0x37, 0x0d, 0x33,
  0xa5, 0x41, 0x21, 0xca, 0xa3, 0xf5, 0x13, 0xf5, 0x2f, 0x39, 0xab, 0xc2,
  0x01, 0x49, 0xe9, 0x15, 0xef, 0x14, 0xdb, 0x04, 0x1a, 0x1e, 0x08, 0x0c,
  0x3c, 0xf0, 0xb6, 0x03, 0xb8, 0x0e, 0x4d, 0x24, 0x02, 0x3d, 0x38, 0x16,
  0xc9, 0x2c, 0x1d, 0xf7, 0xee, 0xc2, 0x38, 0x4a, 0x32, 0x21, 0x00, 0xce,
  0x04, 0x1f, 0x3b, 0xdd, 0x54, 0x37, 0xc9, 0x1b, 0x0e, 0xe8, 0x01, 0x07,
  0x1b, 0x28, 0x23, 0x31, 0x12, 0xe5, 0x3c, 0xe9, 0x1a, 0x33, 0x1e, 0xce,
  0x24, 0xbd, 0x3b, 0x16, 0x30, 0xd8, 0x68, 0xd4, 0x19, 0x0e, 0x3d, 0x39,
  0x74, 0xda, 0x1f, 0x20, 0xde, 0xfa, 0x24, 0x01, 0x1a, 0xf0, 0xcf, 0x25,
  0x20, 0xcc, 0x17, 0x32, 0x47, 0xf2, 0x39, 0xdc, 0x18, 0x1f, 0x00, 0xe5,
  0xe4, 0x10, 0xf4, 0x00, 0xd1, 0x25, 0xed, 0xe6, 0x14, 0xfb, 0xed, 0x15,
  0xf9, 0xee, 0x40, 0x52, 0x46, 0xcc, 0xe1, 0x3a, 0x28, 0xb8, 0x11, 0xf3,
  0xee, 0xf9, 0x14, 0x1f, 0xf3, 0x0d, 0xfd, 0x42, 0x21, 0xd4, 0x32, 0x1b,
  0x31, 0xe2, 0x16, 0xf4, 0xfa, 0xef, 0x0b, 0xb3, 0x46, 0xb7, 0xf1, 0xe8,
  0xb7, 0x36, 0xf5, 0x3d, 0x53, 0x3e, 0xea, 0xdb, 0x04, 0x1b, 0xdd, 0x19,
  0x15, 0xdb, 0x07, 0x1d, 0x24, 0x0b, 0x2a, 0x0b, 0xdd, 0xcf, 0xdd, 0x04,
  0x07, 0x32, 0xd4, 0xb4, 0x0b, 0xcf, 0xde, 0x4d, 0x1d, 0xde, 0x0e, 0xfd,
  0xe9, 0xd3, 0x14, 0xe7, 0x12, 0x3f, 0xe7, 0xc1, 0xd3, 0xe5, 0xc6, 0x21,
  0xa4, 0x0c, 0x16, 0xc0, 0xd0, 0xec, 0x11, 0xdd, 0x01, 0xda, 0x09, 0xe8,
  0xef, 0x14, 0xdd, 0xc8, 0x25, 0x2c, 0xea, 0x2b, 0xc9, 0x24, 0x23, 0xfd,
  0x13, 0x03, 0x04, 0x03, 0x0a, 0x25, 0xd4, 0x42, 0xda, 0xf9, 0xff, 0x42,
  0x06, 0x0c, 0xf5, 0xf1, 0xf4, 0xf5, 0x19, 0xcd, 0x1e, 0x0f, 0x1b, 0xea,
  0x1b, 0x3b, 0xf7, 0xe8, 0x1c, 0xe3, 0xf7, 0x0d, 0x04, 0xfc, 0xc3, 0x16,
  0xdf, 0xf1, 0x19, 0xc1, 0x20, 0xd7, 0xc1, 0xeb, 0xd9, 0x08, 0x12, 0x15,
  0xb8, 0x03, 0xd6, 0x3b, 0x05, 0xd8, 0x2c, 0x1a, 0x49, 0x1b, 0x37, 0x18,
  0x47, 0xeb, 0x10, 0x27, 0xdf, 0x32, 0xfd, 0x10, 0x39, 0xd9, 0x49, 0x02,
  0x12, 0xf1, 0x04, 0x13, 0x3b, 0x40, 0x26, 0x35, 0x04, 0x1e, 0xcc, 0xbe,
  0x20, 0x30, 0x2c, 0x01, 0xe3, 0xf0, 0x0f, 0x18, 0xe1, 0x2c, 0xf0, 0x13,
  0xee, 0x17, 0xf6, 0xc0, 0xd1, 0xe3, 0xf7, 0x38, 0x1c, 0x34, 0xe1, 0x12,
  0xd0, 0x1b, 0x19, 0xe8, 0xef, 0x0a, 0xfd, 0x1f, 0x13, 0xea, 0xad, 0x15,
  0x07, 0xf1, 0x30, 0x2b, 0xed, 0x28, 0xd3, 0xec, 0xf3, 0x06, 0x03, 0xdd,
  0x30, 0xf4, 0x23, 0xf9, 0xee, 0xb6, 0x0d, 0xfd, 0xf5, 0x02, 0x47, 0xf5,
  0xd2, 0x43, 0xbf, 0x4e, 0x10, 0xef, 0x02, 0xfd, 0xeb, 0xe3, 0x3a, 0xf6,
  0x1d, 0x25, 0xb5, 0xc6, 0xd0, 0xf0, 0x0a, 0x15, 0xd9, 0x3c, 0xe9, 0xe7,
  0x03, 0x3e, 0x11, 0xfb, 0xe7, 0xb5, 0xc4, 0xc3, 0x28, 0x1a, 0xae, 0x06,
  0x3e, 0x23, 0xe1, 0xba, 0xf6, 0x03, 0x47, 0x28, 0xf7, 0xfd, 0x1b, 0x23,
  0x02, 0xf1, 0xfb, 0xbb, 0x03, 0x47, 0x30, 0xf7, 0x47, 0x24, 0x13, 0x29,
  0xe2, 0xce, 0x44, 0xe5, 0xf3, 0x1a, 0xc5, 0xe9, 0x04, 0x2a, 0xdb, 0xee,
  0xc1, 0x09, 0xd6, 0xca, 0x2f, 0xc5, 0x12, 0xd9, 0x2a, 0xfa, 0xdf, 0x22,
  0x29, 0x36, 0xf7, 0x43, 0x21, 0x19, 0x19, 0xe4, 0xf3, 0x1a, 0x12, 0x28,
  0xdf, 0x23, 0x24, 0xdd, 0xea, 0x19, 0x19, 0x42, 0xf2, 0x1b, 0xc9, 0x0e,
  0x29, 0x48, 0xd4, 0x01, 0x41, 0xf2, 0xcb, 0x15, 0xe1, 0x11, 0x04, 0xf1,
  0x4c, 0x07, 0x0b, 0x37, 0xab, 0x1c, 0xe2, 0xda, 0x38, 0x30, 0xe9, 0xc0,
  0x1a, 0x12, 0xbd, 0xcb, 0xd9, 0x1d, 0x52, 0x2b, 0x1f, 0x0a, 0x2d, 0xf1,
  0xf5, 0x07, 0xc8, 0x2e, 0xfd, 0xf5, 0x0c, 0xd1, 0xc2, 0x32, 0x11, 0xe7,
  0xda, 0xda, 0x20, 0x12, 0x15, 0x46, 0xd1, 0xf3, 0x36, 0x01, 0x4c, 0x0f,
  0x45, 0x0e, 0xbb, 0xd1, 0xf7, 0xe1, 0x2e, 0x1b, 0x52, 0x0d, 0xc9, 0x14,
  0x23, 0xf1, 0x3e, 0xf3, 0x1f, 0x1c, 0xe5, 0xcc, 0xde, 0xea, 0x12, 0xf7,
  0xde, 0x2d, 0x21, 0xf5, 0x19, 0xd0, 0x2a, 0x12, 0xd0, 0x35, 0x25, 0xf1,
  0x0f, 0x56, 0xec, 0x1a, 0x26, 0xbe, 0x0f, 0xc9, 0x26, 0x0e, 0x2b, 0x23,
  0xbf, 0x2a, 0xdb, 0x2f, 0x1d, 0x35, 0x08, 0x18, 0xfd, 0xd6, 0xd2, 0xeb,
  0x25, 0xc8, 0x1b, 0x0d, 0xb6, 0x1e, 0x1e, 0x11, 0xdb, 0xbd, 0x25, 0xd6,
  0xb2, 0x0c, 0xf6, 0x1e, 0x1c, 0xda, 0xe5, 0xfc, 0x21, 0xb8, 0x29, 0x00,
  0x29, 0x1a, 0xf8, 0x03, 0xe7, 0x32, 0xd9, 0xf2, 0xd5, 0x25, 0x0b, 0x3b,
  0x30, 0xf9, 0x51, 0x0d, 0x2d, 0x17, 0x18, 0xc3, 0xfb, 0xf9, 0xc3, 0xf9,
  0x31, 0xce, 0x07, 0xea, 0xeb, 0x4c, 0x28, 0xe0, 0x11, 0x2d, 0x08, 0xd2,
  0x2d, 0xd0, 0x3c, 0x1d, 0xe7, 0xf1, 0xc1, 0xd7, 0xf6, 0xc4, 0x10, 0xcf,
  0xf0, 0xde, 0x0d, 0xfd, 0xf1, 0xbb, 0x19, 0x01, 0xd7, 0x02, 0x0e, 0xcd,
  0xd8, 0x42, 0xdc, 0xd3, 0xe3, 0xd8, 0xae, 0x02, 0xf8, 0xed, 0x51, 0xfa,
  0x22, 0x54, 0x1e, 0xff, 0x17, 0x4b, 0x24, 0x14, 0xfa, 0xc5, 0xd8, 0xdd,
  0xc4, 0xca, 0xc4, 0xe7, 0xdf, 0x20, 0xfb, 0xd1, 0xfe, 0xfd, 0x25, 0xe2,
  0x4e, 0xce, 0x04, 0x07, 0xce, 0x1e, 0x40, 0xea, 0x29, 0xeb, 0xe5, 0xfa,
  0xf8, 0x28, 0xce, 0xf9, 0xf9, 0xd7, 0xea, 0x4c, 0xe0, 0x08, 0xd8, 0xb8,
  0x13, 0x16, 0x0f, 0x0f, 0x14, 0xd6, 0xeb, 0xb3, 0xfa, 0xe7, 0x0c, 0xef,
  0x14, 0x1b, 0x48, 0x21, 0x05, 0xee, 0x01, 0x12, 0xd0, 0x32, 0x02, 0xd3,
  0x27, 0x09, 0x06, 0xd3, 0xe6, 0x09, 0x3d, 0x2e, 0xfa, 0xc1, 0x0e, 0x01,
  0xeb, 0x15, 0x27, 0xdf, 0xd2, 0x40, 0xca, 0xe2, 0x1a, 0xef, 0x4c, 0x17,
  0x47, 0x3d, 0x03, 0xdb, 0xf5, 0xae, 0x24, 0xda, 0xfa, 0xf0, 0xd5, 0xcc,
  0xed, 0xf6, 0xea, 0xf5, 0xeb, 0x26, 0xc3, 0xf2, 0x38, 0xdc, 0x18, 0xef,
  0x02, 0x07, 0x24, 0x39, 0x34, 0xee, 0x17, 0xea, 0x0c, 0x02, 0x43, 0xc6,
  0xef, 0xf5, 0x11, 0xd7, 0xe0, 0xed, 0xed, 0x02, 0xe7, 0xdf, 0xe0, 0x29,
  0x2b, 0x22, 0x00, 0x31, 0x35, 0x41, 0x05, 0xfa, 0xd0, 0xb6, 0x39, 0xe5,
  0x32, 0xea, 0xf7, 0x28, 0xf9, 0x42, 0x2e, 0xed, 0x32, 0xe0, 0xdc, 0x11,
  0xb7, 0xec, 0x28, 0x10, 0x16, 0x06, 0x3c, 0xdd, 0x3b, 0x15, 0xe6, 0xe8,
  0x1e, 0x36, 0xe1, 0xd2, 0xf7, 0x54, 0xae, 0xd8, 0xcb, 0xd1, 0xff, 0x2d,
  0x54, 0x22, 0x33, 0xe4, 0xee, 0x0f, 0x28, 0xbf, 0xd7, 0xfd, 0xe2, 0x02,
  0xda, 0xf0, 0x4f, 0x4b, 0xd2, 0xf5, 0xff, 0xe1, 0xcd, 0xce, 0xfe, 0x24,
  0x0c, 0xc6, 0x15, 0x0f, 0x2f, 0x1c, 0xdf, 0xf8, 0xfc, 0xe3, 0xaf, 0x13,
  0x24, 0xe8, 0xd6, 0x05, 0x02, 0xd8, 0x3e, 0x05, 0xb7, 0x4b, 0xf4, 0x4c,
  0xd5, 0x24, 0xe5, 0xdc, 0xc7, 0x1e, 0xf6, 0xe5, 0xb8, 0xcd, 0xef, 0x04,
  0x0f, 0xf0, 0xdc, 0xc8, 0xea, 0xb7, 0xb9, 0x4f, 0xf1, 0xb2, 0xe0, 0xdc,
  0xea, 0x12, 0xfe, 0xe1, 0x03, 0x17, 0x0f, 0x2c, 0x5e, 0xe8, 0x13, 0x0a,
  0x27, 0x42, 0x51, 0x51, 0xd9, 0x1c, 0xf3, 0xf3, 0x02, 0xb1, 0xf8, 0xc8,
  0xbe, 0xfd, 0x03, 0xca, 0x16, 0x29, 0x0a, 0xef, 0x1f, 0x02, 0xba, 0xc8,
  0xf3, 0x2a, 0x48, 0xea, 0x15, 0xf5, 0xff, 0xf8, 0x07, 0xec, 0xb7, 0xe2,
  0x38, 0xc7, 0x16, 0x0f, 0x0c, 0x04, 0xef, 0x14, 0x0e, 0xfd, 0x1e, 0x22,
  0x4c, 0xfc, 0xbe, 0xfb, 0x42, 0x1a, 0xec, 0x14, 0x08, 0xfc, 0xcc, 0xff,
  0xf8, 0x46, 0xda, 0x24, 0x0f, 0xc9, 0xf8, 0x00, 0xd4, 0xfe, 0x26, 0x00,
  0x06, 0xf8, 0x0a, 0xec, 0xd5, 0xcd, 0x18, 0xda, 0x0e, 0xf2, 0xbb, 0xe0,
  0xc3, 0xd3, 0xf7, 0xcb, 0xef, 0xe1, 0xff, 0xe0, 0xed, 0xda, 0x04, 0xc3,
  0x05, 0x1b, 0xdf, 0xd4, 0xe8, 0xe0, 0x00, 0xf2, 0x1f, 0xf0, 0xbd, 0x12,
  0x36, 0xa5, 0x02, 0x17, 0x2f, 0x15, 0x12, 0x83, 0x0a, 0xdd, 0x36, 0x1f,
  0x47, 0xeb, 0x51, 0xca, 0x27, 0xef, 0xe8, 0xcd, 0x2f, 0x43, 0x20, 0x1b,
  0xd5, 0x2c, 0x0e, 0x13, 0xfd, 0xe3, 0x16, 0x01, 0x3c, 0xe4, 0x00, 0xd1,
  0x0a, 0x10, 0xff, 0x29, 0x17, 0xf1, 0xf6, 0xf9, 0x2c, 0xd0, 0xf0, 0xad,
  0xda, 0xb9, 0xec, 0xfe, 0x3b, 0x1d, 0x35, 0xd4, 0x33, 0xe1, 0x08, 0xc2,
  0xf0, 0x0c, 0xff, 0xfe, 0xba, 0x35, 0xba, 0xf8, 0xdb, 0xe3, 0xcc, 0xd7,
  0x21, 0xd8, 0x23, 0x48, 0x2d, 0x21, 0x34, 0x0f, 0xd3, 0xe8, 0x4e, 0x1e,
  0x38, 0xbd, 0xd8, 0xff, 0xc9, 0x02, 0xea, 0xfc, 0x11, 0xf8, 0xfc, 0xff,
  0xd8, 0x04, 0x1b, 0xff, 0x3b, 0xef, 0x19, 0xdb, 0xca, 0xfb, 0x0b, 0xe1,
  0xdb, 0xca, 0xe9, 0x00, 0xd1, 0x18, 0x21, 0x21, 0x01, 0x36, 0x28, 0xc5,
  0x0c, 0xc0, 0xa9, 0x38, 0xe0, 0x10, 0x18, 0xda, 0x10, 0xcf, 0xe7, 0xd8,
  0x09, 0xd3, 0xbe, 0xd1, 0x09, 0xe6, 0xd4, 0xb6, 0x16, 0xca, 0xe2, 0x44,
  0xcd, 0x0f, 0xcc, 0x0f, 0x19, 0x3f, 0x23, 0xe5, 0xf5, 0xee, 0xfd, 0x43,
  0xe9, 0xb1, 0xd8, 0xcf, 0xe8, 0xfa, 0x1c, 0xfe, 0xb0, 0xce, 0xd1, 0x3f,
  0xe1, 0x03, 0x07, 0xc7, 0x06, 0x26, 0xf9, 0xc9, 0xee, 0x0b, 0xed, 0x25,
  0x03, 0x0a, 0x22, 0x22, 0x33, 0x1b, 0xc2, 0x23, 0x1f, 0xf2, 0x18, 0xf6,
  0x2c, 0xcf, 0x05, 0x21, 0x16, 0x2d, 0xf5, 0x16, 0xf3, 0xf6, 0x2c, 0x0e,
  0x10, 0xc1, 0x42, 0xf5, 0x1a, 0xd2, 0x29, 0x45, 0x16, 0xec, 0xf9, 0x22,
  0x18, 0xf3, 0xff, 0xd2, 0xf9, 0xdc, 0xe1, 0x2b, 0x03, 0xf6, 0x21, 0x46,
  0x29, 0xff, 0xb7, 0xcf, 0x19, 0xe4, 0xfe, 0xca, 0xf4, 0xd8, 0xb7, 0x3c,
  0xf5, 0xcb, 0xcc, 0xeb, 0xfc, 0xf8, 0xf8, 0x06, 0xc9, 0x25, 0x44, 0xc6,
  0x12, 0xaf, 0xfc, 0x02, 0xfb, 0xed, 0xc2, 0x12, 0xda, 0x0b, 0xcf, 0x1d,
  0x0e, 0xe5, 0x18, 0x22, 0xce, 0x2d, 0x0d, 0xc7, 0xe7, 0xee, 0xb4, 0xf8,
  0xf9, 0xb4, 0xb6, 0xdd, 0xff, 0x05, 0xfb, 0xed, 0xf3, 0x0e, 0x2d, 0x3e,
  0xe8, 0x09, 0xbe, 0x06, 0xd0, 0x2d, 0xd0, 0xf8, 0xfe, 0x01, 0xe4, 0xf7,
  0x36, 0x2d, 0xf6, 0x0c, 0xf7, 0x1f, 0x05, 0x04, 0xd4, 0x07, 0xd8, 0x30,
  0xe9, 0xec, 0x55, 0xef, 0xe5, 0x0d, 0x15, 0x06, 0x03, 0x04, 0x07, 0x07,
  0xf4, 0xc1, 0xf9, 0x3a, 0x0e, 0x0e, 0x2a, 0xec, 0xed, 0xd8, 0x09, 0xfd,
  0x02, 0x15, 0x31, 0xd4, 0xf1, 0xc2, 0x42, 0xe0, 0x1e, 0xfa, 0x3b, 0xf7,
  0xdd, 0x3c, 0x29, 0xe1, 0xd8, 0x27, 0x15, 0xdd, 0xf9, 0x53, 0xf0, 0xf5,
  0xc1, 0x0a, 0x32, 0xb8, 0x2a, 0xef, 0xa8, 0x35, 0xfd, 0xec, 0xf5, 0xfa,
  0xbf, 0xec, 0xe7, 0xe8, 0xea, 0x07, 0xe3, 0x41, 0xe9, 0x0d, 0xf9, 0x2e,
  0x19, 0x0e, 0x1d, 0x02, 0x2a, 0x0a, 0x1d, 0x17, 0x08, 0x36, 0xc0, 0x33,
  0x16, 0x37, 0xf7, 0xf2, 0x11, 0xf8, 0xf3, 0x13, 0x40, 0x08, 0x1c, 0x34,
  0xf8, 0xfc, 0x1b, 0x2a, 0xd3, 0xd2, 0x0f, 0xf0, 0xf9, 0x52, 0x12, 0x12,
  0x57, 0xd3, 0x08, 0x35, 0x2f, 0x10, 0x23, 0x1c, 0xc9, 0xd2, 0xf3, 0xe1,
  0x15, 0x20, 0x17, 0x13, 0x1b, 0x0c, 0x44, 0xc5, 0xff, 0x2a, 0x17, 0xeb,
  0x09, 0x13, 0xf0, 0x05, 0xea, 0x09, 0x3c, 0xec, 0x38, 0xd7, 0x0f, 0x24,
  0x3f, 0x26, 0x05, 0x08, 0x24, 0x22, 0x2f, 0xe4, 0xf6, 0xed, 0xde, 0xef,
  0x37, 0x2a, 0xf1, 0x2c, 0xe6, 0xd9, 0x2d, 0xd8, 0x10, 0xd8, 0xd1, 0x17,
  0x00, 0x2c, 0xf8, 0x16, 0x50, 0xe4, 0xdc, 0xee, 0x3a, 0x42, 0x18, 0x34,
  0xf1, 0x15, 0x1a, 0x0a, 0x17, 0x28, 0xbb, 0xef, 0x36, 0x38, 0x11, 0x40,
  0xd4, 0x2e, 0x21, 0x02, 0x33, 0xea, 0x87, 0x03, 0x30, 0xe3, 0x06, 0xfe,
  0xb9, 0xd7, 0x10, 0x40, 0xd9, 0xe0, 0xa9, 0x25, 0x12, 0x1b, 0x2d, 0xb6,
  0xba, 0xf6, 0xfe, 0xd8, 0xf0, 0xfe, 0xb0, 0x1f, 0xd9, 0xee, 0x20, 0x10,
  0xcd, 0x32, 0x08, 0x2c, 0x53, 0xff, 0xea, 0xf7, 0x47, 0x44, 0xcb, 0xfe,
  0xd3, 0x1c, 0x14, 0x07, 0x03, 0x1f, 0xe2, 0xc5, 0xc7, 0xb6, 0x06, 0xfc,
  0xe7, 0x59, 0xc7, 0xfa, 0xec, 0x08, 0x11, 0x29, 0xe6, 0xfe, 0xe8, 0xdf,
  0xd3, 0xca, 0xef, 0x17, 0xfc, 0x0f, 0xea, 0x3f, 0x32, 0x12, 0xfc, 0xd2,
  0x00, 0x5e, 0xf8, 0xc8, 0xd9, 0x0d, 0x0f, 0xe4, 0xdf, 0x34, 0xf6, 0x08,
  0x4f, 0xee, 0xed, 0x05, 0x28, 0xf2, 0xf2, 0x3c, 0x0c, 0xfa, 0xd8, 0xf5,
  0x27, 0x15, 0xc9, 0x13, 0x52, 0xea, 0x0b, 0x23, 0xee, 0xbb, 0xfe, 0xcf,
  0x31, 0x23, 0xbf, 0x08, 0xf3, 0xd9, 0xc6, 0x16, 0x36, 0xe5, 0xce, 0xe2,
  0x37, 0xe6, 0xe1, 0xe4, 0x48, 0xcd, 0x35, 0xfe, 0xdf, 0xfa, 0xe3, 0xdd,
  0xf0, 0xb4, 0xe0, 0xe7, 0x25, 0xf1, 0x38, 0xf3, 0xdd, 0x43, 0x15, 0xea,
  0xf6, 0xf5, 0x0c, 0xec, 0x01, 0x0c, 0xeb, 0xd8, 0xae, 0xd3, 0x31, 0x1b,
  0x0c, 0x29, 0x26, 0xf6, 0x12, 0xed, 0x07, 0x10, 0x24, 0x27, 0xfa, 0x4e,
  0x0d, 0x28, 0xb1, 0xdb, 0xeb, 0xc3, 0x08, 0xeb, 0x2f, 0x05, 0x20, 0xe0,
  0x1a, 0xf0, 0x00, 0xd9, 0xd2, 0xfa, 0xf3, 0xe7, 0xc9, 0xd9, 0x06, 0xff,
  0x07, 0xe4, 0xe3, 0x11, 0x26, 0xf2, 0x23, 0x15, 0xc3, 0xf0, 0xd1, 0xfd,
  0xf2, 0x06, 0xdb, 0xdf, 0x0d, 0x3f, 0xbe, 0xb5, 0xf0, 0xe7, 0xc2, 0x0d,
  0x17, 0xf5, 0x0e, 0xb9, 0x13, 0xc6, 0x01, 0xde, 0xa3, 0x45, 0xf1, 0xe0,
  0xcd, 0x01, 0xc3, 0xd9, 0xb2, 0xfd, 0x00, 0xee, 0xc6, 0xfb, 0x1a, 0x13,
  0xce, 0x0f, 0x11, 0xfb, 0x06, 0x02, 0xdf, 0x0a, 0xba, 0x1e, 0xef, 0xd4,
  0xd6, 0xfd, 0x14, 0xb2, 0x23, 0x15, 0xf0, 0x07, 0xef, 0xea, 0x10, 0xf6,
  0x16, 0x2f, 0x10, 0x2c, 0x29, 0x40, 0xe6, 0xed, 0x5d, 0xef, 0xe9, 0xed,
  0x06, 0x05, 0x28, 0xca, 0x0a, 0x45, 0x04, 0x2d, 0x10, 0x08, 0x25, 0x0e,
  0xe4, 0xbd, 0x21, 0x02, 0xdd, 0xf5, 0x61, 0x24, 0xe8, 0xe1, 0xf9, 0xf3,
  0x52, 0x40, 0xcc, 0x0c, 0xfb, 0xbf, 0x50, 0xb5, 0xc3, 0x3d, 0xf3, 0x16,
  0x54, 0x1f, 0xed, 0x35, 0xd8, 0xcc, 0x1b, 0x2a, 0xdc, 0x04, 0xcb, 0x04,
  0x26, 0x2a, 0xf6, 0x0d, 0x05, 0x43, 0x1b, 0x07, 0x43, 0x09, 0x23, 0x3d,
  0xb7, 0x08, 0x2d, 0x10, 0x0b, 0xe5, 0x2b, 0x31, 0xc8, 0x01, 0x08, 0xf1,
  0x23, 0x05, 0xe0, 0x05, 0xee, 0x19, 0x08, 0x04, 0x04, 0xf4, 0xef, 0xfd,
  0xcf, 0xe5, 0xb4, 0x0b, 0x0f, 0xf9, 0x1d, 0xe7, 0xee, 0xee, 0x12, 0x02,
  0xee, 0x07, 0x1d, 0x19, 0xc0, 0x07, 0xde, 0x36, 0xd6, 0xfa, 0x18, 0x00,
  0x13, 0xea, 0x32, 0x01, 0xdc, 0x13, 0x23, 0x47, 0xda, 0x1c, 0xfd, 0xee,
  0xde, 0xf8, 0x02, 0xd3, 0xd5, 0xf1, 0x2e, 0xdf, 0xd2, 0xeb, 0xe9, 0x46,
  0xfd, 0x00, 0xc9, 0x0b, 0x16, 0x0b, 0x22, 0xb8, 0xea, 0xf7, 0xaf, 0x55,
  0x19, 0x22, 0x24, 0xe0, 0xf3, 0x18, 0x13, 0xaf, 0xdb, 0x1a, 0xf8, 0xfd,
  0x0d, 0x1c, 0x26, 0xfc, 0x34, 0x2a, 0x0e, 0x3b, 0x2b, 0xe4, 0x46, 0xf7,
  0x1f, 0xf4, 0xf7, 0xe2, 0x50, 0x07, 0xfb, 0xb4, 0xfe, 0xb6, 0x4b, 0x0a,
  0xeb, 0x91, 0x10, 0xba, 0xfd, 0x45, 0x11, 0xc5, 0xfc, 0xe5, 0xf3, 0x11,
  0xdd, 0xf9, 0x24, 0xf6, 0xe0, 0x19, 0xc9, 0xd5, 0xe1, 0xc7, 0xeb, 0xdf,
  0x25, 0xd7, 0xf3, 0xfd, 0x08, 0xe1, 0x18, 0x02, 0xd4, 0xd4, 0x12, 0x11,
  0x27, 0xe4, 0xfa, 0x14, 0xe4, 0x15, 0xec, 0xe3, 0x1e, 0xdc, 0xe2, 0xf3,
  0x2b, 0x15, 0xf2, 0xcf, 0xeb, 0xd1, 0x17, 0xc6, 0xbe, 0x40, 0xdf, 0x26,
  0x10, 0xcb, 0x0e, 0xca, 0x0f, 0xe4, 0x22, 0x30, 0x2f, 0x0a, 0x01, 0x24,
  0x0d, 0x18, 0x13, 0x0e, 0xeb, 0xd5, 0x30, 0x29, 0x15, 0x2f, 0x0a, 0xb8,
  0x00, 0xe6, 0x0a, 0xea, 0xe0, 0xc4, 0x06, 0xcb, 0x01, 0x05, 0x45, 0xcf,
  0xd7, 0xe3, 0x1b, 0x0f, 0xe0, 0x3a, 0xe9, 0x2d, 0x09, 0xd4, 0x2b, 0xdd,
  0x26, 0x2e, 0xee, 0xfb, 0x38, 0xf3, 0x04, 0x11, 0x25, 0x0e, 0x33, 0xe8,
  0xd5, 0xf5, 0x2f, 0x07, 0xcb, 0x17, 0x18, 0x4c, 0x3e, 0xb5, 0x3b, 0x17,
  0xe1, 0xf3, 0x02, 0xb9, 0xea, 0x0f, 0xda, 0x18, 0x3a, 0x1a, 0xf6, 0x00,
  0xfd, 0xf2, 0x19, 0xef, 0xf4, 0x55, 0xbf, 0x09, 0x2e, 0x15, 0xf4, 0xcd,
  0xd0, 0xfa, 0x16, 0x14, 0x07, 0xf3, 0x05, 0xff, 0xf6, 0xb7, 0x22, 0xdf,
  0xee, 0xcc, 0x18, 0x01, 0xe9, 0xcd, 0xfa, 0xf9, 0x4a, 0x21, 0xad, 0xe7,
  0x36, 0x0c, 0x0d, 0x17, 0x48, 0x1f, 0xd5, 0xf6, 0x0b, 0xc4, 0x14, 0x26,
  0xce, 0x32, 0x4d, 0x18, 0xd8, 0xee, 0xba, 0xdb, 0x16, 0x13, 0x24, 0xce,
  0xac, 0x3a, 0x1e, 0x0a, 0xf3, 0x3b, 0xe1, 0xc2, 0xf7, 0xfa, 0x26, 0xcc,
  0x19, 0xbf, 0xe8, 0xf4, 0x18, 0x11, 0xfa, 0x50, 0x09, 0x0d, 0x39, 0x41,
  0xba, 0x4a, 0x23, 0x2d, 0xa6, 0xbd, 0x85, 0xef, 0x44, 0x14, 0xad, 0xe7,
  0xf2, 0x37, 0x45, 0xc2, 0xf5, 0xec, 0xab, 0x3d, 0x45, 0x29, 0x13, 0xc0,
  0xe7, 0x5b, 0x0c, 0xc4, 0xdb, 0x1e, 0x95, 0x02, 0x10, 0xe0, 0x11, 0xf1,
  0xf4, 0x51, 0x14, 0x00, 0xba, 0x00, 0x07, 0x17, 0x39, 0x28, 0x12, 0x39,
  0x04, 0xc9, 0xf6, 0xf2, 0x11, 0x18, 0x28, 0xd1, 0xf5, 0xff, 0x55, 0xf9,
  0xc9, 0x25, 0x4a, 0xdb, 0x07, 0xdd, 0xfc, 0x00, 0x23, 0x48, 0x1d, 0x03,
  0xde, 0xf7, 0x0b, 0x13, 0xdc, 0x40, 0x4b, 0xcb, 0x0b, 0x1b, 0x41, 0xe8,
  0x28, 0x1a, 0x03, 0xdc, 0x36, 0x02, 0x54, 0x06, 0xf3, 0xe0, 0xe2, 0xf5,
  0x11, 0x16, 0x05, 0xf3, 0xfc, 0xf1, 0x2d, 0xbf, 0x21, 0x1d, 0x31, 0x27,
  0xf9, 0xdd, 0xf9, 0x10, 0x0b, 0x0e, 0xca, 0xdc, 0xe4, 0x06, 0x49, 0xea,
  0xf1, 0xfc, 0xdc, 0x45, 0xf3, 0x40, 0xfd, 0xf7, 0xd4, 0xf2, 0x12, 0x1c,
  0xe4, 0x49, 0x13, 0xf1, 0x39, 0xf6, 0x11, 0x02, 0x08, 0xfe, 0x36, 0x22,
  0xc6, 0x06, 0x33, 0x30, 0x1e, 0xe6, 0xf5, 0x47, 0xfc, 0xcc, 0x15, 0x07,
  0xca, 0xf5, 0xfc, 0x43, 0x3f, 0xd6, 0xea, 0xe6, 0x43, 0xea, 0x56, 0x17,
  0xd1, 0x0a, 0x24, 0xde, 0xea, 0xf1, 0xea, 0x13, 0xe1, 0xf7, 0x3c, 0xd8,
  0x15, 0xe8, 0x28, 0xf3, 0x46, 0x00, 0xe9, 0xd0, 0xce, 0x17, 0x2e, 0xcf,
  0xc6, 0x29, 0x44, 0xf4, 0xbf, 0xc8, 0xe5, 0xf2, 0x08, 0x34, 0x2b, 0x08,
  0xb0, 0xfe, 0x28, 0x0e, 0x01, 0x24, 0xf2, 0xdc, 0xff, 0xb5, 0xe2, 0x2a,
  0xe4, 0x3c, 0xef, 0x1f, 0x1a, 0x33, 0xbc, 0xdc, 0x31, 0x06, 0xfb, 0xeb,
  0xfb, 0x53, 0x15, 0xf5, 0x19, 0x16, 0x21, 0x33, 0x0c, 0x02, 0xdd, 0x08,
  0x1b, 0x17, 0xb3, 0x54, 0x04, 0x10, 0xed, 0x42, 0x05, 0xf7, 0x11, 0xf5,
  0xef, 0x38, 0x2f, 0xc6, 0xf8, 0x0f, 0x2c, 0x49, 0xf8, 0xcb, 0x13, 0x15,
  0x1d, 0xe0, 0xdb, 0x1c, 0x2a, 0xbd, 0x40, 0x04, 0x1a, 0xf6, 0x13, 0x1a,
  0x0b, 0x31, 0xdb, 0xff, 0xd7, 0xd8, 0x06, 0x02, 0xcb, 0xec, 0xf4, 0xcd,
  0xf7, 0x36, 0xde, 0x39, 0xc6, 0xd3, 0xfe, 0x11, 0x07, 0xfc, 0xc5, 0x18,
  0xfe, 0x17, 0xea, 0xfa, 0xbc, 0xc4, 0xf9, 0x40, 0x02, 0xc3, 0x1d, 0x0c,
  0xf1, 0xd2, 0xd1, 0xff, 0x0f, 0xf9, 0x19, 0xec, 0x41, 0x41, 0x18, 0x17,
  0x1f, 0xe4, 0xe9, 0x42, 0xe3, 0xee, 0xec, 0xfd, 0xd5, 0xdc, 0x0c, 0xb2,
  0x04, 0x26, 0x24, 0xe5, 0xea, 0x0f, 0x18, 0xfa, 0x07, 0x19, 0xde, 0x32,
  0x12, 0x2d, 0x0a, 0xee, 0x15, 0xf2, 0x53, 0x12, 0x14, 0x2d, 0xf1, 0xdf,
  0xc3, 0x0f, 0x3f, 0xc3, 0x00, 0x25, 0x0a, 0x08, 0x3a, 0xab, 0x0f, 0x24,
  0xcd, 0x0d, 0x2d, 0xfe, 0x07, 0xd2, 0xd3, 0x68, 0xc4, 0xd8, 0x3a, 0x0e,
  0xed, 0x0f, 0x1d, 0xd9, 0xf8, 0xf8, 0x01, 0x1b, 0x20, 0xf2, 0x11, 0x03,
  0x35, 0xf4, 0xff, 0xed, 0x45, 0x24, 0xee, 0x32, 0x37, 0xce, 0xf7, 0xd1,
  0xdb, 0x18, 0xd1, 0x03, 0x24, 0x00, 0xfb, 0xd4, 0x02, 0x4e, 0xf4, 0x05,
  0xd6, 0xfd, 0xfb, 0x08, 0x1c, 0x17, 0xe7, 0xe5, 0x03, 0xe2, 0x37, 0xfe,
  0xfe, 0x17, 0x0e, 0x15, 0x0d, 0xe4, 0xfe, 0x33, 0xfe, 0x29, 0xd0, 0x13,
  0xfe, 0xc5, 0xe1, 0x13, 0x55, 0x02, 0xe2, 0x0f, 0xd6, 0x11, 0x19, 0x14,
  0xe9, 0x2f, 0x09, 0x09, 0x4a, 0x03, 0xe4, 0xd9, 0xeb, 0x00, 0x27, 0x40,
  0xf4, 0x3a, 0xcd, 0xb1, 0x29, 0x05, 0xeb, 0xfd, 0xc9, 0x14, 0xcc, 0xfd,
  0x23, 0xd3, 0xf5, 0xe3, 0x0a, 0xce, 0x15, 0x20, 0x3c, 0xfb, 0x11, 0xe8,
  0x3a, 0xe3, 0x39, 0x04, 0xec, 0xfa, 0x33, 0x03, 0xd9, 0x3c, 0xeb, 0xfd,
  0x2c, 0x16, 0x29, 0x3c, 0x08, 0xe9, 0x08, 0xde, 0x20, 0xc8, 0xe3, 0xca,
  0x0d, 0x1b, 0x18, 0x1f, 0x11, 0xfd, 0x0b, 0x10, 0xce, 0xf4, 0x17, 0x18,
  0xd9, 0xf7, 0xfb, 0xc4, 0xfc, 0x13, 0x18, 0x02, 0xcf, 0x3c, 0x10, 0xe5,
  0xf8, 0xf5, 0x37, 0xb9, 0x1b, 0xf8, 0xe9, 0x3f, 0xd3, 0x25, 0xf7, 0xeb,
  0xe3, 0xb9, 0x35, 0x3e, 0xd6, 0x0c, 0x41, 0xf9, 0xf3, 0xf7, 0xeb, 0x08,
  0x05, 0x08, 0xfc, 0x43, 0x1f, 0x2f, 0xf2, 0x1d, 0xd9, 0xe3, 0x19, 0xeb,
  0xab, 0x1d, 0xb3, 0xcc, 0x00, 0xeb, 0xff, 0x06, 0x35, 0x27, 0x21, 0xe4,
  0xf8, 0x1d, 0xd9, 0xfa, 0x06, 0x24, 0x3a, 0x4e, 0xee, 0xf9, 0x0a, 0x12,
  0x01, 0x01, 0xca, 0x22, 0x09, 0xd2, 0xe4, 0xff, 0xf0, 0x2e, 0xfb, 0x36,
  0x50, 0xe6, 0x3e, 0xcf, 0xc4, 0xe3, 0xdd, 0xf8, 0x1f, 0xd7, 0xc4, 0xdc,
  0x52, 0x54, 0x48, 0xf5, 0x31, 0xe7, 0x26, 0xed, 0xc5, 0x1b, 0xd4, 0x23,
  0x1a, 0x1b, 0xc1, 0x41, 0x04, 0xf4, 0xed, 0x0e, 0xfa, 0x05, 0x32, 0xbf,
  0xc4, 0xe3, 0x18, 0x1d, 0x05, 0xf3, 0x1d, 0x0f, 0xe1, 0xad, 0xba, 0x17,
  0xe1, 0xdd, 0xf4, 0xfb, 0xe4, 0x3a, 0xd0, 0x18, 0xe0, 0x23, 0x12, 0x2b,
  0x08, 0xf0, 0x27, 0x05, 0xc8, 0x2d, 0x07, 0xe3, 0x15, 0x19, 0x18, 0x14,
  0xf5, 0x0d, 0x1d, 0xdb, 0xee, 0x54, 0x1d, 0xcf, 0x0c, 0x24, 0x28, 0x02,
  0x1c, 0x21, 0xe8, 0xec, 0x36, 0x14, 0x02, 0xfd, 0xfd, 0xdd, 0xf0, 0x2e,
  0xfe, 0x05, 0x3c, 0x1f, 0xe6, 0xce, 0xfc, 0x2d, 0x24, 0xb9, 0xce, 0xd1,
  0x02, 0x00, 0xc6, 0xe9, 0xe9, 0x01, 0xd1, 0x99, 0xf9, 0xd7, 0xd6, 0xd8,
  0x22, 0x27, 0xa5, 0x54, 0xd2, 0xca, 0xe3, 0xbd, 0xef, 0x17, 0xaf, 0xff,
  0xbb, 0xe7, 0xe3, 0xd3, 0xf0, 0x43, 0x30, 0xe6, 0xd3, 0xbc, 0xe5, 0x11,
  0x2e, 0xb1, 0xe8, 0xea, 0x12, 0x2e, 0x00, 0x28, 0xd9, 0xfd, 0xe0, 0x1b,
  0x0f, 0xba, 0x22, 0xee, 0xf6, 0x37, 0xfd, 0x1c, 0x02, 0xde, 0xb9, 0x37,
  0x04, 0x06, 0x0e, 0xea, 0xec, 0x34, 0x16, 0xe7, 0xf3, 0x22, 0xcb, 0x2d,
  0xea, 0xdf, 0x12, 0xf2, 0x09, 0xe0, 0x00, 0xfc, 0xef, 0xf3, 0xd6, 0x31,
  0xe6, 0x4f, 0x20, 0x09, 0xce, 0xd7, 0x24, 0xe6, 0xf8, 0x4b, 0x2b, 0xf5,
  0x25, 0xf1, 0xc4, 0x01, 0x16, 0xb4, 0x05, 0x19, 0x19, 0x00, 0xda, 0xcb,
  0x11, 0xad, 0x04, 0x13, 0x49, 0xe9, 0xb9, 0x25, 0x1f, 0xbd, 0xc3, 0xae,
  0xd8, 0x3b, 0x25, 0xd7, 0xff, 0x23, 0xf1, 0xc4, 0x10, 0xbf, 0xbd, 0xc0,
  0x22, 0x42, 0x08, 0xde, 0x54, 0xfa, 0x07, 0x15, 0xd1, 0xfb, 0x47, 0x3e,
  0x27, 0xf5, 0xf8, 0xfe, 0xef, 0x3b, 0xed, 0x41, 0x11, 0xe5, 0x0c, 0xf6,
  0xf1, 0xe7, 0x5f, 0x15, 0x1f, 0x11, 0xed, 0xff, 0xd4, 0xed, 0x0d, 0xf7,
  0xdc, 0x07, 0xdf, 0xd3, 0xd5, 0x37, 0x08, 0xe1, 0x0b, 0x24, 0x34, 0x0d,
  0x28, 0xfe, 0x2a, 0x0a, 0x0c, 0xf3, 0x48, 0x21, 0xf7, 0x0e, 0xd2, 0xe1,
  0x64, 0xf2, 0x40, 0x37, 0x1c, 0xf9, 0x0b, 0x1c, 0x23, 0xe7, 0x0e, 0x52,
  0x08, 0x1a, 0x0c, 0x39, 0x00, 0xff, 0x4d, 0x1a, 0x0e, 0xd9, 0x12, 0x39,
  0xfe, 0xda, 0xe0, 0x23, 0xb6, 0x41, 0x21, 0x0a, 0x55, 0x32, 0xf6, 0x4f,
  0x16, 0xcd, 0x11, 0xeb, 0xd9, 0x09, 0xe7, 0x04, 0xf3, 0xe7, 0x0b, 0x2b,
  0x14, 0x2c, 0x04, 0xf3, 0xf5, 0xf4, 0xe2, 0x06, 0x02, 0xfd, 0xd1, 0xf6,
  0x35, 0x35, 0x15, 0x14, 0xc6, 0xff, 0xcf, 0xf4, 0x0a, 0x45, 0xd5, 0xd9,
  0x98, 0x31, 0x41, 0xf4, 0x29, 0xcd, 0xdb, 0x38, 0xfa, 0xd8, 0xda, 0x02,
  0xd7, 0x31, 0xdf, 0x0d, 0xc5, 0xe8, 0xfa, 0xed, 0x28, 0x05, 0xd5, 0xd6,
  0xe5, 0x1d, 0xe7, 0x4f, 0xea, 0xed, 0xd0, 0xcc, 0xe2, 0xff, 0x06, 0x06,
  0xf5, 0x04, 0x07, 0x16, 0x24, 0xe4, 0xd3, 0x32, 0xf9, 0x16, 0x3f, 0xdb,
  0xe5, 0xeb, 0x35, 0x31, 0x19, 0x42, 0xfa, 0x13, 0x0d, 0x0a, 0xf5, 0xbc,
  0xf3, 0x00, 0x10, 0x33, 0x37, 0xd0, 0x08, 0xd2, 0xd4, 0xd0, 0xda, 0x1b,
  0xf7, 0xcf, 0xcc, 0xbe, 0x16, 0x19, 0xbf, 0x1e, 0xe9, 0x12, 0x17, 0x1b,
  0xd4, 0x0a, 0xe4, 0xf7, 0x31, 0xcf, 0xd8, 0x3a, 0x11, 0x1d, 0xaf, 0x19,
  0x23, 0xe4, 0x17, 0xc1, 0x0b, 0xcf, 0x1b, 0x13, 0xf3, 0xae, 0xd7, 0x0d,
  0xca, 0x14, 0xeb, 0xef, 0xde, 0x2d, 0x3d, 0x01, 0xe1, 0x1d, 0xfc, 0x15,
  0x1c, 0x1a, 0x1b, 0x24, 0x14, 0xe4, 0xe2, 0x07, 0xe7, 0xf5, 0x0a, 0xae,
  0xbb, 0xbe, 0xfc, 0xdd, 0x06, 0xd0, 0xc2, 0xc4, 0xd3, 0xf3, 0x4a, 0x18,
  0x20, 0xff, 0xd9, 0x0c, 0xed, 0xec, 0xf4, 0x2a, 0x09, 0xae, 0xf7, 0xe5,
  0xe4, 0x06, 0xf5, 0x01, 0x2e, 0xfb, 0xe0, 0xb3, 0xb1, 0x17, 0xfa, 0x17,
  0xff, 0x24, 0xfc, 0x0a, 0x37, 0x0f, 0x38, 0xb9, 0x05, 0x14, 0xbf, 0xf5,
  0xfa, 0xcb, 0x16, 0xf0, 0xf0, 0xe9, 0xed, 0xf2, 0xd1, 0xe9, 0x3a, 0xad,
  0x10, 0x25, 0x11, 0x26, 0xe8, 0xf4, 0x07, 0x46, 0x00, 0xdd, 0xf7, 0xe5,
  0xb0, 0xfe, 0xd8, 0x12, 0x2c, 0x10, 0x0e, 0xfc, 0x07, 0x38, 0x20, 0x16,
  0xa7, 0x98, 0x3b, 0xe7, 0x0e, 0xdc, 0xf7, 0x81, 0x38, 0xfb, 0x11, 0xe1,
  0x18, 0xa2, 0x2d, 0x05, 0x0b, 0xf1, 0x1b, 0xa7, 0x25, 0xe3, 0x2a, 0xfc,
  0xeb, 0xd6, 0xf5, 0xdf, 0xe6, 0x35, 0x1b, 0xd7, 0xfb, 0x16, 0xcd, 0xe1,
  0x1a, 0xc0, 0x47, 0x10, 0xfb, 0xed, 0xd5, 0x10, 0x02, 0xcc, 0x0d, 0x01,
  0xf5, 0x08, 0x0b, 0x0a, 0x3c, 0xdd, 0xff, 0xfb, 0x1e, 0xd6, 0x38, 0x02,
  0xd0, 0xeb, 0xec, 0x20, 0xd5, 0xbb, 0xf8, 0xa8, 0x14, 0x13, 0x08, 0x17,
  0x36, 0xdb, 0x4a, 0x10, 0xdf, 0x24, 0xef, 0xaf, 0xe0, 0x25, 0xc1, 0x2f,
  0x05, 0x16, 0x2a, 0x16, 0xfa, 0x4e, 0xe8, 0xa6, 0xd7, 0x3e, 0x0e, 0xe6,
  0xf9, 0xad, 0xe6, 0xcf, 0xf5, 0x42, 0xd6, 0xc9, 0x14, 0xc2, 0xe5, 0x3c,
  0x01, 0x9c, 0xf5, 0x44, 0xfd, 0xed, 0x24, 0xcb, 0x25, 0xcf, 0xf1, 0xc1,
  0x2b, 0x64, 0xe7, 0x22, 0xeb, 0x2c, 0xfb, 0xc5, 0x22, 0xe2, 0x2e, 0xbc,
  0x3a, 0xde, 0xf9, 0xd9, 0xb7, 0x39, 0xf3, 0x61, 0xbf, 0x04, 0x11, 0xe9,
  0xf3, 0x1b, 0xe5, 0x21, 0xbd, 0x01, 0xba, 0xfe, 0x13, 0x2f, 0x35, 0x10,
  0x46, 0xc0, 0x38, 0xf8, 0x0d, 0xcd, 0x02, 0xea, 0xe7, 0x0c, 0xda, 0x23,
  0xe1, 0x56, 0x17, 0x25, 0xee, 0xff, 0x51, 0xdf, 0x0f, 0x1d, 0x02, 0xdb,
  0xd8, 0xbf, 0xf8, 0x55, 0x3e, 0x18, 0x00, 0xf5, 0xb8, 0xba, 0xe1, 0x27,
  0xc1, 0xe3, 0x00, 0xea, 0x0a, 0xc4, 0xe0, 0xd7, 0x10, 0xe8, 0xee, 0xc8,
  0x36, 0x29, 0xeb, 0x33, 0xc1, 0x1b, 0x11, 0xdc, 0xe7, 0x27, 0x3d, 0x2b,
  0x06, 0xc0, 0xf3, 0x07, 0x31, 0xc7, 0x01, 0xb4, 0xe4, 0x00, 0x28, 0x48,
  0xf5, 0x03, 0xfd, 0x12, 0x03, 0x05, 0xbb, 0xe7, 0xf0, 0xe0, 0xdb, 0xd9,
  0xec, 0x43, 0x00, 0xfc, 0xaf, 0xf1, 0xe8, 0xff, 0x1f, 0x34, 0xc9, 0x01,
  0x12, 0x2d, 0x31, 0x32, 0xd8, 0x04, 0xfb, 0xe2, 0x0c, 0xf0, 0xfb, 0x0a,
  0x04, 0x46, 0xe7, 0xe1, 0xfc, 0xef, 0xf8, 0x3c, 0xcf, 0xf9, 0xe3, 0xfa,
  0xe2, 0xe3, 0x2d, 0x11, 0x2b, 0x2b, 0xb2, 0xfd, 0x37, 0xc4, 0x2e, 0x04,
  0xd3, 0x0a, 0x39, 0xf5, 0x11, 0x31, 0xd9, 0xfe, 0x50, 0x04, 0x22, 0x4b,
  0xf8, 0x11, 0x01, 0x04, 0xce, 0xf1, 0xc9, 0xd6, 0x25, 0x29, 0xd0, 0xf2,
  0x0c, 0xf9, 0xe9, 0x09, 0xdb, 0xef, 0xef, 0xc5, 0xd6, 0xef, 0xf7, 0xad,
  0xb5, 0xdc, 0x15, 0xdc, 0xfa, 0x38, 0x0c, 0x06, 0xeb, 0x11, 0x03, 0xda,
  0xe0, 0x1a, 0xe3, 0xcc, 0x19, 0x04, 0xd5, 0xf5, 0xef, 0xe0, 0xf7, 0x28,
  0xc2, 0x2d, 0xe8, 0xe4, 0x00, 0xfc, 0x0e, 0x1d, 0xff, 0x01, 0x04, 0xed,
  0x20, 0x27, 0xe9, 0x04, 0x13, 0x20, 0x25, 0xf1, 0xfa, 0xe3, 0xeb, 0xdf,
  0x1a, 0xdb, 0x07, 0xfa, 0x38, 0xf3, 0xdb, 0x01, 0x38, 0xfd, 0x22, 0x05,
  0xfb, 0x11, 0x1a, 0xfb, 0xff, 0xcd, 0xda, 0xc7, 0x28, 0xe3, 0xfd, 0xd8,
  0xe4, 0xc9, 0xcf, 0x18, 0x14, 0xfd, 0x10, 0x3a, 0xff, 0x08, 0xdf, 0xef,
  0x37, 0x0b, 0xee, 0x1f, 0x0f, 0x23, 0xc1, 0x40, 0xd1, 0xc3, 0x03, 0xf6,
  0x29, 0xcc, 0x2a, 0xb3, 0x33, 0xe3, 0xfe, 0xfd, 0xe6, 0xd7, 0x31, 0x41,
  0x36, 0x05, 0x24, 0xf8, 0xd9, 0x35, 0x06, 0xf5, 0xd7, 0xd0, 0x3f, 0xdb,
  0xef, 0xdf, 0xdc, 0xd6, 0xf7, 0xf1, 0x12, 0x24, 0xfc, 0x2d, 0x30, 0x0c,
  0x3c, 0x03, 0x01, 0xee, 0xd5, 0x09, 0x0f, 0x2c, 0xf5, 0x24, 0x00, 0x34,
  0xae, 0xdf, 0x17, 0xeb, 0x2a, 0x3b, 0xde, 0xe4, 0xcd, 0xd7, 0xd7, 0xc6,
  0x37, 0xce, 0xd6, 0x27, 0xcf, 0x05, 0xf2, 0xb3, 0xe3, 0x24, 0xcd, 0x0f,
  0xd9, 0x19, 0xe9, 0xfd, 0xc4, 0xeb, 0xe3, 0xee, 0xc5, 0xe5, 0x3f, 0xf4,
  0xdc, 0xe3, 0xbf, 0xad, 0x05, 0x1c, 0x30, 0xcb, 0x0a, 0xf0, 0x10, 0x10,
  0xd6, 0xfb, 0xac, 0xf2, 0xd8, 0x31, 0xe6, 0xb4, 0xfa, 0x0b, 0x0c, 0x29,
  0x21, 0x39, 0xd4, 0xd8, 0xb1, 0x52, 0x0f, 0xd5, 0xe7, 0xec, 0x40, 0xcf,
  0xfd, 0xad, 0xec, 0xf8, 0x4d, 0x33, 0x14, 0x0e, 0x31, 0x1a, 0x13, 0xf7,
  0xa4, 0xf8, 0xeb, 0xe7, 0xe2, 0xbe, 0x06, 0x02, 0x24, 0x02, 0x30, 0x16,
  0x01, 0x06, 0xd5, 0xf9, 0xf0, 0x2a, 0x11, 0xe6, 0x15, 0xf4, 0xef, 0x10,
  0xf1, 0xe6, 0x1d, 0x3f, 0x29, 0xdd, 0x0f, 0x03, 0x0e, 0x22, 0xf6, 0x22,
  0x2e, 0xd5, 0xc3, 0xc8, 0xdc, 0xdf, 0x2d, 0xcd, 0x0a, 0xd6, 0xdc, 0xfd,
  0x58, 0xc2, 0x4c, 0xcf, 0x0d, 0xb0, 0x23, 0xdd, 0x06, 0x08, 0x16, 0x19,
  0xda, 0xcf, 0x06, 0x03, 0x0e, 0x3f, 0xfd, 0xf5, 0xf1, 0x17, 0xe3, 0xf3,
  0xe0, 0xd0, 0x0e, 0xcb, 0x38, 0xea, 0x2c, 0x0f, 0xf2, 0x21, 0x04, 0x27,
  0x19, 0x2f, 0x26, 0xfd, 0xe5, 0x1c, 0xf4, 0x0b, 0x2e, 0xe0, 0x00, 0xe9,
  0x48, 0xf0, 0x0c, 0xd9, 0x23, 0x11, 0x02, 0xdf, 0xeb, 0x00, 0x15, 0x36,
  0xf1, 0xf3, 0x4d, 0xd8, 0x4f, 0xfd, 0xf7, 0xc8, 0xed, 0xb9, 0xd1, 0x0c,
  0x13, 0xbb, 0x19, 0xec, 0x2f, 0x04, 0x2b, 0xa0, 0x4b, 0x11, 0x12, 0x07,
  0x15, 0xc3, 0xd7, 0xfb, 0x38, 0xd3, 0xde, 0xf7, 0xfe, 0x12, 0x54, 0xf5,
  0x3d, 0xea, 0x0f, 0x19, 0xc0, 0x10, 0xc5, 0xf1, 0x26, 0xd5, 0xca, 0xfb,
  0xd5, 0xd1, 0xf4, 0xd4, 0x18, 0x08, 0x29, 0xfb, 0xb8, 0xe8, 0xe2, 0xe6,
  0xb4, 0x9a, 0x56, 0xf9, 0xe1, 0xde, 0xd4, 0xb7, 0x2d, 0x42, 0xeb, 0x10,
  0xe9, 0xa8, 0x1d, 0xc0, 0x52, 0x2c, 0x27, 0xc5, 0x3f, 0x2a, 0xf9, 0x14,
  0x37, 0xe9, 0x51, 0xfa, 0xf2, 0x05, 0x22, 0x1d, 0x26, 0x42, 0x02, 0x48,
  0x3c, 0xfc, 0x07, 0x2e, 0x3d, 0x33, 0xcf, 0xb7, 0xc9, 0x24, 0x1f, 0xea,
  0x21, 0xe5, 0xf2, 0xf7, 0xce, 0xe2, 0x3a, 0x0f, 0xb3, 0x4c, 0xea, 0x10,
  0xdf, 0xd2, 0x08, 0xf4, 0xd9, 0xf3, 0x1e, 0xb5, 0xbe, 0xbf, 0xfa, 0x04,
  0xfb, 0x99, 0xec, 0x12, 0xfb, 0x21, 0x2e, 0xc7, 0x07, 0xe4, 0x09, 0x27,
  0x14, 0xe4, 0xec, 0x35, 0xf1, 0x26, 0xf7, 0xc9, 0xd5, 0x12, 0x0c, 0x1b,
  0xc7, 0xba, 0x39, 0xf8, 0xf6, 0xf9, 0xfc, 0xff, 0xf2, 0x25, 0xba, 0xfd,
  0xe0, 0xcc, 0x28, 0x36, 0x1f, 0xca, 0x07, 0xbb, 0x1f, 0xc3, 0x3b, 0x02,
  0x07, 0xd1, 0xde, 0xca, 0x01, 0xf3, 0x2c, 0xf3, 0xe7, 0x45, 0x00, 0xb9,
  0xfe, 0xc5, 0xc4, 0xd4, 0x03, 0x1a, 0xec, 0x0e, 0xb1, 0x05, 0xeb, 0x1c,
  0xef, 0xc8, 0xb4, 0x41, 0xd8, 0xc7, 0xa5, 0x05, 0xe3, 0x08, 0xe2, 0xe5,
  0xb7, 0xf1, 0x09, 0xef, 0xae, 0x23, 0xce, 0xec, 0xed, 0xf1, 0xf2, 0xf2,
  0x09, 0xe7, 0xc4, 0x0f, 0xc5, 0x1f, 0xf1, 0x23, 0xfb, 0xce, 0x0d, 0xd7,
  0xa3, 0xeb, 0x2f, 0xe8, 0xd5, 0xf1, 0xbb, 0x13, 0x51, 0x0c, 0xf7, 0xcb,
  0xfa, 0xfc, 0x22, 0x0a, 0x0e, 0xed, 0xcf, 0x34, 0x01, 0x12, 0xfa, 0xe2,
  0xc1, 0x18, 0x50, 0xe2, 0x47, 0xf3, 0xf4, 0x41, 0x29, 0xec, 0x15, 0x38,
  0xe5, 0xf2, 0xf6, 0xbd, 0xe6, 0xcb, 0xf9, 0x0c, 0xf0, 0x11, 0xf1, 0xbe,
  0xec, 0x3b, 0x40, 0x29, 0x42, 0xe0, 0xd9, 0x13, 0xb0, 0x30, 0xea, 0xc1,
  0xa8, 0x04, 0xf3, 0xd4, 0xe0, 0xfc, 0xc9, 0x06, 0xd6, 0x0c, 0x04, 0x03,
  0xd2, 0xfb, 0x26, 0xbc, 0x0b, 0xd5, 0x18, 0x5d, 0xf9, 0xd7, 0xed, 0x4e,
  0x0b, 0x2e, 0x00, 0xf0, 0xed, 0xff, 0x35, 0x11, 0x08, 0x04, 0xfe, 0x4f,
  0x0a, 0x1b, 0x1c, 0x2a, 0xea, 0xfb, 0xbe, 0x51, 0xf1, 0x4d, 0xf7, 0x41,
  0x03, 0xf9, 0x2a, 0x19, 0x01, 0x26, 0x1a, 0x09, 0x03, 0x14, 0x2a, 0x2d,
  0x30, 0xc4, 0xf9, 0xfd, 0x3c, 0xfc, 0x5c, 0xe0, 0x0a, 0x50, 0x3d, 0x10,
  0x1d, 0x31, 0x34, 0x12, 0xeb, 0x19, 0x20, 0x0f, 0xfb, 0x20, 0xfe, 0xca,
  0x37, 0xc4, 0x0a, 0xfe, 0xbc, 0x17, 0x3c, 0xe7, 0x04, 0x0a, 0x1b, 0xd2,
  0x55, 0x04, 0x25, 0x34, 0x50, 0x34, 0x12, 0x06, 0x32, 0x2c, 0x26, 0x14,
  0x59, 0x11, 0xd6, 0xf6, 0xe3, 0xe8, 0x1c, 0x2a, 0x40, 0xe3, 0xe9, 0x39,
  0xc7, 0x9c, 0xdd, 0xf9, 0xb3, 0x0f, 0xd2, 0xe0, 0xe6, 0x1d, 0xda, 0xf1,
  0x05, 0xed, 0xc0, 0x4f, 0x39, 0x01, 0xed, 0xd0, 0x15, 0x51, 0xc5, 0x10,
  0xe3, 0xdc, 0xcb, 0xf9, 0x1c, 0xeb, 0x27, 0xc8, 0xe8, 0xc9, 0xfb, 0xe2,
  0x05, 0x1f, 0xf9, 0xf8, 0xc3, 0xf8, 0x16, 0xc2, 0x10, 0x06, 0xd6, 0x2c,
  0x48, 0xfd, 0x15, 0xee, 0x06, 0xea, 0xf0, 0x41, 0xd9, 0xce, 0xe3, 0x06,
  0xda, 0xd2, 0x12, 0xec, 0xef, 0x3e, 0xee, 0x3a, 0x1d, 0x1c, 0x22, 0x02,
  0xdb, 0x40, 0xca, 0x39, 0xfb, 0x0c, 0x1e, 0x09, 0xd5, 0x25, 0xea, 0x00,
  0x27, 0xe5, 0xfd, 0x42, 0x07, 0xf0, 0x19, 0xef, 0x19, 0xfd, 0xe8, 0x08,
  0xfd, 0xbf, 0xb9, 0x1c, 0x52, 0xbd, 0xcc, 0xf7, 0xe9, 0x10, 0x40, 0x43,
  0xe6, 0x2d, 0x23, 0x0c, 0xc4, 0x00, 0xe7, 0x40, 0xe2, 0x00, 0xf2, 0x19,
  0xac, 0xfa, 0xff, 0xff, 0xb0, 0xfa, 0xff, 0xff, 0xe6, 0xfa, 0xff, 0xff,
  0x04, 0x00, 0x00, 0x00, 0xee, 0x02, 0x00, 0x00, 0x2d, 0x38, 0x03, 0xe1,
  0xf1, 0x1a, 0xe6, 0x50, 0xd0, 0x39, 0xf8, 0xcb, 0x1c, 0xed, 0x05, 0x38,
  0xd0, 0xf7, 0xda, 0xf0, 0x47, 0xf5, 0xf8, 0xb5, 0xfd, 0x35, 0x14, 0x08,
  0xe6, 0xf8, 0x01, 0xf2, 0x1c, 0xd0, 0xb1, 0x41, 0xcd, 0xf3, 0x04, 0xd8,
  0x79, 0x05, 0xb5, 0xe6, 0x13, 0x59, 0x7c, 0x09, 0xc7, 0xfd, 0xec, 0xfc,
  0xcf, 0x3b, 0x29, 0x06, 0xb9, 0x3c, 0x04, 0xf5, 0xbd, 0x2b, 0xdf, 0xe7,
  0x07, 0x03, 0xde, 0x04, 0xbc, 0x08, 0x2e, 0xc6, 0xca, 0xed, 0xe3, 0xbc,
  0x0c, 0xe3, 0x0a, 0x15, 0xda, 0xf6, 0x08, 0xd0, 0x20, 0x0c, 0x05, 0x11,
  0x23, 0x22, 0xd6, 0xdd, 0x13, 0x13, 0x1f, 0x0c, 0x17, 0xf3, 0xbf, 0xb6,
  0x16, 0x32, 0x22, 0x5a, 0xe8, 0xf6, 0xd5, 0xc9, 0x50, 0x18, 0xbc, 0xc0,
  0x3e, 0xea, 0xe3, 0xdc, 0x38, 0xfe, 0x21, 0x02, 0xd7, 0x01, 0xda, 0xf0,
  0x2f, 0x07, 0x17, 0xdc, 0xce, 0xde, 0x53, 0x13, 0x01, 0x3c, 0x1c, 0x14,
  0xca, 0x05, 0x26, 0x08, 0x08, 0x09, 0x09, 0x2a, 0xe5, 0x0c, 0xd3, 0x10,
  0xf8, 0x20, 0x46, 0x5b, 0xd2, 0x17, 0x3a, 0x35, 0xde, 0xe6, 0x17, 0xf5,
  0x6b, 0x54, 0xe1, 0x18, 0x01, 0xb6, 0xde, 0x14, 0x2f, 0x00, 0x05, 0x05,
  0xf3, 0x33, 0xcc, 0xf7, 0x31, 0x4d, 0xae, 0x2e, 0x3b, 0xbe, 0xd8, 0xd8,
  0xfc, 0xe7, 0xf8, 0x48, 0xce, 0x0c, 0x24, 0x0a, 0xab, 0xe4, 0xf8, 0xd6,
  0x10, 0xf5, 0x7f, 0x08, 0xcf, 0x1a, 0x02, 0x1a, 0x23, 0xcf, 0x37, 0x0a,
  0xf0, 0x1b, 0x0c, 0xdb, 0xf7, 0x18, 0xe4, 0x23, 0x0f, 0x2d, 0x09, 0xe9,
  0xd9, 0x69, 0x48, 0x08, 0xd1, 0xd0, 0x56, 0xc1, 0x15, 0x1d, 0xfe, 0xc6,
  0x25, 0x38, 0xfd, 0xe0, 0x57, 0x15, 0xe5, 0x35, 0x30, 0xed, 0xbf, 0xd8,
  0x4e, 0xf2, 0x00, 0x78, 0xe8, 0x2e, 0x0b, 0xff, 0x00, 0x36, 0xc0, 0x24,
  0xe5, 0xf5, 0x4e, 0x28, 0xe2, 0x17, 0xfc, 0xec, 0x0d, 0xdd, 0xee, 0xd5,
  0xef, 0x52, 0x4c, 0x11, 0x03, 0x1b, 0xda, 0xfb, 0xcd, 0xdd, 0x34, 0x3b,
  0x10, 0xfb, 0x03, 0xd7, 0x1e, 0xb7, 0x18, 0xfe, 0xdd, 0x0e, 0x3d, 0xe9,
  0x50, 0xef, 0xb3, 0x3b, 0xc5, 0xea, 0x04, 0x21, 0xfe, 0x03, 0xf4, 0xdc,
  0x0f, 0x50, 0xff, 0xdf, 0xbd, 0x2f, 0x07, 0x2e, 0x1b, 0xd2, 0x2c, 0xd0,
  0x02, 0x19, 0xf5, 0x17, 0xe1, 0xaf, 0xe7, 0x57, 0x2d, 0x10, 0x08, 0x2b,
  0xe4, 0xd9, 0x18, 0xbc, 0x01, 0x3d, 0x38, 0x53, 0xdc, 0x40, 0xda, 0xc9,
  0xde, 0x1f, 0x09, 0x0a, 0xf3, 0xfd, 0x19, 0xc9, 0x19, 0xf3, 0xe7, 0x30,
  0x14, 0x0c, 0xe9, 0xfd, 0x05, 0x2a, 0xf5, 0xcd, 0x28, 0xfc, 0x43, 0xfc,
  0x0b, 0x18, 0x19, 0xef, 0x04, 0xda, 0x1e, 0xbb, 0xc7, 0x09, 0xf0, 0x38,
  0xdd, 0x11, 0xae, 0xca, 0xde, 0xe5, 0x33, 0xb9, 0xfb, 0xfa, 0xec, 0xc1,
  0xb5, 0x0b, 0xe8, 0xd5, 0x19, 0x26, 0x0e, 0x2d, 0xcd, 0x03, 0xbb, 0x2e,
  0xd1, 0xf4, 0xf3, 0x16, 0x28, 0x0c, 0x36, 0x3e, 0x05, 0xeb, 0xe8, 0x41,
  0x3a, 0x15, 0x31, 0xec, 0x23, 0xc9, 0xb1, 0x32, 0xfe, 0xfe, 0x1e, 0x35,
  0x29, 0xfa, 0x30, 0x19, 0xe0, 0x3d, 0x05, 0xe5, 0xe9, 0x25, 0x10, 0x29,
  0xe5, 0x28, 0xf4, 0xc5, 0x0f, 0x13, 0x09, 0x26, 0xff, 0xbb, 0xe0, 0x15,
  0x13, 0x06, 0xdd, 0x1c, 0xbe, 0x67, 0x31, 0x0f, 0x0f, 0x29, 0x37, 0x24,
  0x44, 0xe2, 0x12, 0x28, 0xe8, 0x1d, 0xf1, 0xeb, 0x39, 0xf8, 0xef, 0xc4,
  0x06, 0x36, 0x1f, 0xec, 0x03, 0xff, 0xc0, 0x40, 0x75, 0x0e, 0x0f, 0x4f,
  0x07, 0x32, 0xeb, 0xf3, 0x21, 0xf2, 0xf4, 0x0f, 0xf2, 0x42, 0xe5, 0xe1,
  0xfa, 0x02, 0xcf, 0xd8, 0x0f, 0xfd, 0xca, 0xee, 0x0a, 0x0a, 0x41, 0xc5,
  0xcd, 0x33, 0xf4, 0x67, 0xd6, 0x1c, 0xee, 0xe6, 0xdb, 0x33, 0xef, 0x2c,
  0xe0, 0xef, 0xbf, 0x2f, 0xfd, 0x37, 0x32, 0x2a, 0x07, 0xc5, 0x3e, 0xdf,
  0x1d, 0xdb, 0xf4, 0x20, 0xc5, 0x06, 0xf7, 0xcf, 0xfa, 0x3c, 0x40, 0x1d,
  0xb1, 0xe2, 0x2a, 0xf1, 0x5c, 0xe1, 0xf0, 0x1a, 0x40, 0x15, 0xad, 0x38,
  0xb2, 0x00, 0x1a, 0xfc, 0xfb, 0xe4, 0xfd, 0x1d, 0x22, 0x14, 0xe4, 0xfb,
  0xf3, 0x0f, 0x3c, 0x0e, 0xc9, 0xf0, 0x0a, 0xfd, 0xd0, 0x1f, 0x43, 0x0d,
  0x19, 0xdd, 0x4e, 0x0c, 0xf9, 0x24, 0x1a, 0xc2, 0x0a, 0x23, 0x52, 0xfa,
  0x13, 0xf7, 0x0c, 0xfd, 0x63, 0xfa, 0xb4, 0x0d, 0x37, 0xd7, 0x33, 0x32,
  0xec, 0x0b, 0x32, 0xc7, 0x19, 0x17, 0x45, 0x29, 0x32, 0xc8, 0xf2, 0xe1,
  0xe7, 0x1a, 0x0b, 0x1f, 0x14, 0x45, 0x0d, 0x05, 0x53, 0xd5, 0x36, 0x1a,
  0x0c, 0xeb, 0x4d, 0x02, 0x27, 0x23, 0xd9, 0x0a, 0x0a, 0xc5, 0xe4, 0xfa,
  0x08, 0xec, 0x30, 0xf7, 0x32, 0xd4, 0xb5, 0x5a, 0x00, 0x3b, 0x08, 0x3d,
  0xfe, 0xf7, 0xf5, 0xf6, 0xed, 0xe3, 0x2c, 0x26, 0x2e, 0x11, 0x01, 0xfa,
  0x2b, 0xdf, 0x20, 0xbe, 0xf5, 0x2c, 0xd3, 0xff, 0xeb, 0xdd, 0x22, 0x1b,
  0x11, 0x0a, 0xef, 0x19, 0x37, 0x26, 0x2c, 0x02, 0x0a, 0x09, 0x38, 0x48,
  0x46, 0x2b, 0xf6, 0x1c, 0x42, 0xff, 0xb0, 0x07, 0xdd, 0x02, 0xf4, 0x15,
  0xfe, 0x26, 0xff, 0xd5, 0x0e, 0x18, 0xcc, 0x21, 0xf6, 0x63, 0x1a, 0x46,
  0x1e, 0xf0, 0x12, 0x0c, 0x44, 0x11, 0x25, 0xe1, 0x13, 0x20, 0x23, 0x29,
  0xb4, 0xfe, 0xec, 0xf9, 0x13, 0xc3, 0x1e, 0x2a, 0xcc, 0xf8, 0x0b, 0xf1,
  0x0b, 0x29, 0xee, 0xfa, 0x6a, 0x04, 0x0d, 0x0c, 0xed, 0xf4, 0x5d, 0xa8,
  0x2c, 0x29, 0x00, 0x00, 0xb0, 0xfd, 0xff, 0xff, 0xe6, 0xfd, 0xff, 0xff,
  0x04, 0x00, 0x00, 0x00, 0xc8, 0x00, 0x00, 0x00, 0xf2, 0x08, 0x00, 0x00,
  0x58, 0x24, 0x00, 0x00, 0x54, 0x06, 0x00, 0x00, 0xd9, 0x1b, 0x00, 0x00,
  0x07, 0x08, 0x00, 0x00, 0x26, 0x1e, 0x00, 0x00, 0x43, 0x16, 0x00, 0x00,
  0x4d, 0x0e, 0x00, 0x00, 0xe9, 0x0f, 0x00, 0x00, 0x99, 0x27, 0x00, 0x00,
  0x5e, 0x16, 0x00, 0x00, 0x2f, 0x18, 0x00, 0x00, 0x1f, 0x13, 0x00, 0x00,
  0x55, 0x00, 0x00, 0x00, 0x60, 0xfb, 0xff, 0xff, 0xa4, 0xf9, 0xff, 0xff,
  0x11, 0xfe, 0xff, 0xff, 0x49, 0xf6, 0xff, 0xff, 0x21, 0xfb, 0xff, 0xff,
  0x61, 0x02, 0x00, 0x00, 0x8e, 0x14, 0x00, 0x00, 0xd2, 0x13, 0x00, 0x00,
  0xb3, 0x08, 0x00, 0x00, 0xe7, 0x10, 0x00, 0x00, 0x90, 0x0a, 0x00, 0x00,
  0x4c, 0xfe, 0xff, 0xff, 0xa7, 0x1c, 0x00, 0x00, 0x6c, 0xfe, 0xff, 0xff,
  0xb8, 0x12, 0x00, 0x00, 0x20, 0xfd, 0xff, 0xff, 0x3e, 0x26, 0x00, 0x00,
  0x04, 0xf8, 0xff, 0xff, 0x06, 0xfc, 0xff, 0xff, 0xbc, 0x07, 0x00, 0x00,
  0xe2, 0xf7, 0xff, 0xff, 0x75, 0x00, 0x00, 0x00, 0x39, 0x07, 0x00, 0x00,
  0xec, 0x18, 0x00, 0x00, 0x6c, 0x08, 0x00, 0x00, 0x50, 0x0d, 0x00, 0x00,
  0x64, 0x26, 0x00, 0x00, 0xb4, 0xfb, 0xff, 0xff, 0x54, 0x04, 0x00, 0x00,
  0x29, 0xfc, 0xff, 0xff, 0x95, 0x12, 0x00, 0x00, 0x14, 0x07, 0x00, 0x00,
  0x82, 0x1b, 0x00, 0x00, 0xdf, 0x15, 0x00, 0x00, 0x1f, 0x1a, 0x00, 0x00,
  0x89, 0x12, 0x00, 0x00, 0xba, 0xfe, 0xff, 0xff, 0x04, 0x00, 0x00, 0x00,
  0x3c, 0x00, 0x00, 0x00, 0x3e, 0x0d, 0x00, 0x00, 0x06, 0xfd, 0xff, 0xff,
  0x0e, 0x08, 0x00, 0x00, 0x02, 0x0b, 0x00, 0x00, 0x5a, 0x0a, 0x00, 0x00,
  0x16, 0x09, 0x00, 0x00, 0x96, 0x07, 0x00, 0x00, 0x00, 0x00, 0x00, 0x00,
  0x95, 0x04, 0x00, 0x00, 0x4f, 0x0b, 0x00, 0x00, 0xc4, 0x07, 0x00, 0x00,
  0x51, 0x09, 0x00, 0x00, 0xbe, 0x0b, 0x00, 0x00, 0x2f, 0x0d, 0x00, 0x00,
  0x41, 0x0e, 0x00, 0x00, 0x02, 0xff, 0xff, 0xff, 0x04, 0x00, 0x00, 0x00,
  0x3c, 0x00, 0x00, 0x00, 0x7a, 0x1a, 0x07, 0x06, 0xc0, 0x3f, 0xb9, 0xd3,
  0xcc, 0xa1, 0xc5, 0x41, 0x9a, 0x0a, 0x49, 0xf3, 0xe9, 0x40, 0x8d, 0x8a,
  0x35, 0x01, 0xfc, 0x03, 0x3a, 0xec, 0x39, 0x0f, 0x63, 0x97, 0xe6, 0x01,
  0xeb, 0x7f, 0xb4, 0x2c, 0x4c, 0xe6, 0xe6, 0x01, 0x5b, 0xb4, 0xe0, 0x2f,
  0x11, 0xdc, 0xa3, 0xa2, 0xe4, 0x43, 0xbf, 0xcf, 0x07, 0xf4, 0xab, 0x29,
  0xd7, 0x3d, 0xec, 0x8e, 0x4a, 0xff, 0xff, 0xff, 0x04, 0x00, 0x00, 0x00,
  0x10, 0x00, 0x00, 0x00, 0x86, 0x03, 0x00, 0x00, 0x68, 0xff, 0xff, 0xff,
  0x55, 0xf9, 0xff, 0xff, 0xf5, 0x01, 0x00, 0x00, 0x34, 0xff, 0xff, 0xff,
  0x0f, 0x00, 0x00, 0x00, 0x54, 0x4f, 0x43, 0x4f, 0x20, 0x43, 0x6f, 0x6e,
  0x76, 0x65, 0x72, 0x74, 0x65, 0x64, 0x2e, 0x00, 0x01, 0x00, 0x00, 0x00,
  0x04, 0x00, 0x00, 0x00, 0x00, 0xf9, 0xff, 0xff, 0x94, 0x01, 0x00, 0x00,
  0x88, 0x01, 0x00, 0x00, 0x7c, 0x01, 0x00, 0x00, 0x04, 0x00, 0x00, 0x00,
  0x06, 0x00, 0x00, 0x00, 0x50, 0x01, 0x00, 0x00, 0x04, 0x01, 0x00, 0x00,
  0xbc, 0x00, 0x00, 0x00, 0x74, 0x00, 0x00, 0x00, 0x38, 0x00, 0x00, 0x00,
  0x04, 0x00, 0x00, 0x00, 0xd2, 0xfe, 0xff, 0xff, 0x03, 0x00, 0x00, 0x00,
  0x10, 0x00, 0x00, 0x00, 0x04, 0x00, 0x00, 0x00, 0x01, 0x00, 0x00, 0x00,
  0x0c, 0x00, 0x00, 0x00, 0x01, 0x00, 0x00, 0x00, 0x00, 0x00, 0x00, 0x00,
  0x00, 0x00, 0x0e, 0x00, 0x1a, 0x00, 0x08, 0x00, 0x0c, 0x00, 0x10, 0x00,
  0x07, 0x00, 0x14, 0x00, 0x0e, 0x00, 0x00, 0x00, 0x00, 0x00, 0x00, 0x09,
  0x01, 0x00, 0x00, 0x00, 0x24, 0x00, 0x00, 0x00, 0x18, 0x00, 0x00, 0x00,
  0x0c, 0x00, 0x00, 0x00, 0x00, 0x00, 0x06, 0x00, 0x08, 0x00, 0x04, 0x00,
  0x06, 0x00, 0x00, 0x00, 0x00, 0x00, 0x80, 0x3f, 0x01, 0x00, 0x00, 0x00,
  0x00, 0x00, 0x00, 0x00, 0x01, 0x00, 0x00, 0x00, 0x08, 0x00, 0x00, 0x00,
  0xca, 0xff, 0xff, 0xff, 0x00, 0x00, 0x00, 0x08, 0x1c, 0x00, 0x00, 0x00,
  0x10, 0x00, 0x00, 0x00, 0x08, 0x00, 0x00, 0x00, 0x04, 0x00, 0x04, 0x00,
  0x04, 0x00, 0x00, 0x00, 0x01, 0x00, 0x00, 0x00, 0x08, 0x00, 0x00, 0x00,
  0x03, 0x00, 0x00, 0x00, 0x07, 0x00, 0x00, 0x00, 0x09, 0x00, 0x00, 0x00,
  0x0a, 0x00, 0x00, 0x00, 0x00, 0x00, 0x0e, 0x00, 0x14, 0x00, 0x00, 0x00,
  0x08, 0x00, 0x0c, 0x00, 0x07, 0x00, 0x10, 0x00, 0x0e, 0x00, 0x00, 0x00,
  0x00, 0x00, 0x00, 0x08, 0x1c, 0x00, 0x00, 0x00, 0x10, 0x00, 0x00, 0x00,
  0x04, 0x00, 0x00, 0x00, 0xba, 0xff, 0xff, 0xff, 0x00, 0x00, 0x00, 0x01,
  0x01, 0x00, 0x00, 0x00, 0x07, 0x00, 0x00, 0x00, 0x03, 0x00, 0x00, 0x00,
  0x04, 0x00, 0x00, 0x00, 0x05, 0x00, 0x00, 0x00, 0x06, 0x00, 0x00, 0x00,
  0x00, 0x00, 0x0e, 0x00, 0x16, 0x00, 0x00, 0x00, 0x08, 0x00, 0x0c, 0x00,
  0x07, 0x00, 0x10, 0x00, 0x0e, 0x00, 0x00, 0x00, 0x00, 0x00, 0x00, 0x08,
  0x24, 0x00, 0x00, 0x00, 0x18, 0x00, 0x00, 0x00, 0x0c, 0x00, 0x00, 0x00,
  0x00, 0x00, 0x06, 0x00, 0x08, 0x00, 0x07, 0x00, 0x06, 0x00, 0x00, 0x00,
  0x00, 0x00, 0x00, 0x01, 0x01, 0x00, 0x00, 0x00, 0x04, 0x00, 0x00, 0x00,
  0x03, 0x00, 0x00, 0x00, 0x01, 0x00, 0x00, 0x00, 0x02, 0x00, 0x00, 0x00,
  0x03, 0x00, 0x00, 0x00, 0x00, 0x00, 0x0a, 0x00, 0x10, 0x00, 0x04, 0x00,
  0x08, 0x00, 0x0c, 0x00, 0x0a, 0x00, 0x00, 0x00, 0x02, 0x00, 0x00, 0x00,
  0x10, 0x00, 0x00, 0x00, 0x04, 0x00, 0x00, 0x00, 0x01, 0x00, 0x00, 0x00,
  0x01, 0x00, 0x00, 0x00, 0x01, 0x00, 0x00, 0x00, 0x0b, 0x00, 0x00, 0x00,
  0x01, 0x00, 0x00, 0x00, 0x0c, 0x00, 0x00, 0x00, 0x01, 0x00, 0x00, 0x00,
  0x0b, 0x00, 0x00, 0x00, 0x0d, 0x00, 0x00, 0x00, 0xe4, 0x05, 0x00, 0x00,
  0x48, 0x05, 0x00, 0x00, 0xa8, 0x04, 0x00, 0x00, 0x34, 0x04, 0x00, 0x00,
  0xb0, 0x03, 0x00, 0x00, 0x0c, 0x03, 0x00, 0x00, 0x98, 0x02, 0x00, 0x00,
  0x14, 0x02, 0x00, 0x00, 0x88, 0x01, 0x00, 0x00, 0xe4, 0x00, 0x00, 0x00,
  0x70, 0x00, 0x00, 0x00, 0x3c, 0x00, 0x00, 0x00, 0x04, 0x00, 0x00, 0x00,
  0xd8, 0xff, 0xff, 0xff, 0x18, 0x00, 0x00, 0x00, 0x04, 0x00, 0x00, 0x00,
  0x08, 0x00, 0x00, 0x00, 0x49, 0x64, 0x65, 0x6e, 0x74, 0x69, 0x74, 0x79,
  0x00, 0x00, 0x00, 0x00, 0x02, 0x00, 0x00, 0x00, 0x01, 0x00, 0x00, 0x00,
  0x04, 0x00, 0x00, 0x00, 0x0c, 0x00, 0x0c, 0x00, 0x04, 0x00, 0x00, 0x00,
  0x00, 0x00, 0x08, 0x00, 0x0c, 0x00, 0x00, 0x00, 0x20, 0x00, 0x00, 0x00,
  0x04, 0x00, 0x00, 0x00, 0x12, 0x00, 0x00, 0x00, 0x64, 0x65, 0x6e, 0x73,
  0x65, 0x5f, 0x44, 0x65, 0x6e, 0x73, 0x65, 0x31, 0x5f, 0x69, 0x6e, 0x70,
  0x75, 0x74, 0x00, 0x00, 0x02, 0x00, 0x00, 0x00, 0x01, 0x00, 0x00, 0x00,
  0x78, 0x00, 0x00, 0x00, 0xc2, 0xfa, 0xff, 0xff, 0x00, 0x00, 0x00, 0x02,
  0x60, 0x00, 0x00, 0x00, 0x01, 0x00, 0x00, 0x00, 0x2c, 0x00, 0x00, 0x00,
  0x04, 0x00, 0x00, 0x00, 0xb4, 0xfa, 0xff, 0xff, 0x18, 0x00, 0x00, 0x00,
  0x04, 0x00, 0x00, 0x00, 0x01, 0x00, 0x00, 0x00, 0x00, 0x00, 0x00, 0x00,
  0x00, 0x00, 0x00, 0x00, 0x00, 0x00, 0x00, 0x00, 0x01, 0x00, 0x00, 0x00,
  0x8b, 0x9a, 0xfe, 0x38, 0x25, 0x00, 0x00, 0x00, 0x73, 0x65, 0x71, 0x75,
  0x65, 0x6e, 0x74, 0x69, 0x61, 0x6c, 0x5f, 0x31, 0x2f, 0x64, 0x65, 0x6e,
  0x73, 0x65, 0x5f, 0x44, 0x65, 0x6e, 0x73, 0x65, 0x33, 0x2f, 0x4d, 0x61,
  0x74, 0x4d, 0x75, 0x6c, 0x5f, 0x62, 0x69, 0x61, 0x73, 0x00, 0x00, 0x00,
  0x01, 0x00, 0x00, 0x00, 0x04, 0x00, 0x00, 0x00, 0x32, 0xfb, 0xff, 0xff,
  0x00, 0x00, 0x00, 0x09, 0x8c, 0x00, 0x00, 0x00, 0x02, 0x00, 0x00, 0x00,
  0x44, 0x00, 0x00, 0x00, 0x04, 0x00, 0x00, 0x00, 0xbc, 0xfb, 0xff, 0xff,
  0x30, 0x00, 0x00, 0x00, 0x24, 0x00, 0x00, 0x00, 0x18, 0x00, 0x00, 0x00,
  0x04, 0x00, 0x00, 0x00, 0x01, 0x00, 0x00, 0x00, 0x00, 0x00, 0x00, 0x00,
  0x00, 0x00, 0x00, 0x00, 0x00, 0x00, 0x00, 0x00, 0x01, 0x00, 0x00, 0x00,
  0xd0, 0x5c, 0xd4, 0x3b, 0x01, 0x00, 0x00, 0x00, 0x16, 0xb4, 0x52, 0x3f,
  0x01, 0x00, 0x00, 0x00, 0x73, 0x01, 0x44, 0xbf, 0x39, 0x00, 0x00, 0x00,
  0x73, 0x65, 0x71, 0x75, 0x65, 0x6e, 0x74, 0x69, 0x61, 0x6c, 0x5f, 0x31,
  0x2f, 0x64, 0x65, 0x6e, 0x73, 0x65, 0x5f, 0x44, 0x65, 0x6e, 0x73, 0x65,
  0x33, 0x2f, 0x4d, 0x61, 0x74, 0x4d, 0x75, 0x6c, 0x2f, 0x52, 0x65, 0x61,
  0x64, 0x56, 0x61, 0x72, 0x69, 0x61, 0x62, 0x6c, 0x65, 0x4f, 0x70, 0x2f,
  0x74, 0x72, 0x61, 0x6e, 0x73, 0x70, 0x6f, 0x73, 0x65, 0x00, 0x00, 0x00,
  0x02, 0x00, 0x00, 0x00, 0x04, 0x00, 0x00, 0x00, 0x0f, 0x00, 0x00, 0x00,
  0xd2, 0xfb, 0xff, 0xff, 0x00, 0x00, 0x00, 0x09, 0x74, 0x00, 0x00, 0x00,
  0x0b, 0x00, 0x00, 0x00, 0x44, 0x00, 0x00, 0x00, 0x04, 0x00, 0x00, 0x00,
  0x5c, 0xfc, 0xff, 0xff, 0x30, 0x00, 0x00, 0x00, 0x24, 0x00, 0x00, 0x00,
  0x18, 0x00, 0x00, 0x00, 0x04, 0x00, 0x00, 0x00, 0x01, 0x00, 0x00, 0x00,
  0xf6, 0xff, 0xff, 0xff, 0xff, 0xff, 0xff, 0xff, 0x00, 0x00, 0x00, 0x00,
  0x01, 0x00, 0x00, 0x00, 0x4c, 0x2b, 0x13, 0x3d, 0x01, 0x00, 0x00, 0x00,
  0x34, 0x08, 0x9e, 0x40, 0x01, 0x00, 0x00, 0x00, 0x0e, 0x28, 0x87, 0xc0,
  0x21, 0x00, 0x00, 0x00, 0x73, 0x65, 0x71, 0x75, 0x65, 0x6e, 0x74, 0x69,
  0x61, 0x6c, 0x5f, 0x31, 0x2f, 0x64, 0x65, 0x6e, 0x73, 0x65, 0x5f, 0x44,
  0x65, 0x6e, 0x73, 0x65, 0x33, 0x2f, 0x42, 0x69, 0x61, 0x73, 0x41, 0x64,
  0x64, 0x00, 0x00, 0x00, 0x02, 0x00, 0x00, 0x00, 0x01, 0x00, 0x00, 0x00,
  0x04, 0x00, 0x00, 0x00, 0x5a, 0xfc, 0xff, 0xff, 0x00, 0x00, 0x00, 0x09,
  0x6c, 0x00, 0x00, 0x00, 0x08, 0x00, 0x00, 0x00, 0x40, 0x00, 0x00, 0x00,
  0x04, 0x00, 0x00, 0x00, 0xe4, 0xfc, 0xff, 0xff, 0x2c, 0x00, 0x00, 0x00,
  0x20, 0x00, 0x00, 0x00, 0x14, 0x00, 0x00, 0x00, 0x04, 0x00, 0x00, 0x00,
  0x01, 0x00, 0x00, 0x00, 0x80, 0xff, 0xff, 0xff, 0xff, 0xff, 0xff, 0xff,
  0x01, 0x00, 0x00, 0x00, 0xe6, 0x75, 0x99, 0x3c, 0x01, 0x00, 0x00, 0x00,
  0x70, 0xdc, 0x98, 0x40, 0x01, 0x00, 0x00, 0x00, 0x00, 0x00, 0x00, 0x00,
  0x1e, 0x00, 0x00, 0x00, 0x73, 0x65, 0x71, 0x75, 0x65, 0x6e, 0x74, 0x69,
  0x61, 0x6c, 0x5f, 0x31, 0x2f, 0x64, 0x65, 0x6e, 0x73, 0x65, 0x5f, 0x44,
  0x65, 0x6e, 0x73, 0x65, 0x32, 0x2f, 0x52, 0x65, 0x6c, 0x75, 0x00, 0x00,
  0x02, 0x00, 0x00, 0x00, 0x01, 0x00, 0x00, 0x00, 0x0f, 0x00, 0x00, 0x00,
  0xda, 0xfc, 0xff, 0xff, 0x00, 0x00, 0x00, 0x02, 0x60, 0x00, 0x00, 0x00,
  0x03, 0x00, 0x00, 0x00, 0x2c, 0x00, 0x00, 0x00, 0x04, 0x00, 0x00, 0x00,
  0xcc, 0xfc, 0xff, 0xff, 0x18, 0x00, 0x00, 0x00, 0x04, 0x00, 0x00, 0x00,
  0x01, 0x00, 0x00, 0x00, 0x00, 0x00, 0x00, 0x00, 0x00, 0x00, 0x00, 0x00,
  0x00, 0x00, 0x00, 0x00, 0x01, 0x00, 0x00, 0x00, 0xfd, 0x79, 0x13, 0x38,
  0x25, 0x00, 0x00, 0x00, 0x73, 0x65, 0x71, 0x75, 0x65, 0x6e, 0x74, 0x69,
  0x61, 0x6c, 0x5f, 0x31, 0x2f, 0x64, 0x65, 0x6e, 0x73, 0x65, 0x5f, 0x44,
  0x65, 0x6e, 0x73, 0x65, 0x32, 0x2f, 0x4d, 0x61, 0x74, 0x4d, 0x75, 0x6c,
  0x5f, 0x62, 0x69, 0x61, 0x73, 0x00, 0x00, 0x00, 0x01, 0x00, 0x00, 0x00,
  0x0f, 0x00, 0x00, 0x00, 0x4a, 0xfd, 0xff, 0xff, 0x00, 0x00, 0x00, 0x09,
  0x8c, 0x00, 0x00, 0x00, 0x06, 0x00, 0x00, 0x00, 0x44, 0x00, 0x00, 0x00,
  0x04, 0x00, 0x00, 0x00, 0xd4, 0xfd, 0xff, 0xff, 0x30, 0x00, 0x00, 0x00,
  0x24, 0x00, 0x00, 0x00, 0x18, 0x00, 0x00, 0x00, 0x04, 0x00, 0x00, 0x00,
  0x01, 0x00, 0x00, 0x00, 0x00, 0x00, 0x00, 0x00, 0x00, 0x00, 0x00, 0x00,
  0x00, 0x00, 0x00, 0x00, 0x01, 0x00, 0x00, 0x00, 0x94, 0x4a, 0x8a, 0x3b,
  0x01, 0x00, 0x00, 0x00, 0xff, 0x35, 0x09, 0x3f, 0x01, 0x00, 0x00, 0x00,
  0x67, 0x91, 0xbe, 0xbe, 0x39, 0x00, 0x00, 0x00, 0x73, 0x65, 0x71, 0x75,
  0x65, 0x6e, 0x74, 0x69, 0x61, 0x6c, 0x5f, 0x31, 0x2f, 0x64, 0x65, 0x6e,
  0x73, 0x65, 0x5f, 0x44, 0x65, 0x6e, 0x73, 0x65, 0x32, 0x2f, 0x4d, 0x61,
  0x74, 0x4d, 0x75, 0x6c, 0x2f, 0x52, 0x65, 0x61, 0x64, 0x56, 0x61, 0x72,
  0x69, 0x61, 0x62, 0x6c, 0x65, 0x4f, 0x70, 0x2f, 0x74, 0x72, 0x61, 0x6e,
  0x73, 0x70, 0x6f, 0x73, 0x65, 0x00, 0x00, 0x00, 0x02, 0x00, 0x00, 0x00,
  0x0f, 0x00, 0x00, 0x00, 0x32, 0x00, 0x00, 0x00, 0xea, 0xfd, 0xff, 0xff,
  0x00, 0x00, 0x00, 0x09, 0x6c, 0x00, 0x00, 0x00, 0x0a, 0x00, 0x00, 0x00,
  0x40, 0x00, 0x00, 0x00, 0x04, 0x00, 0x00, 0x00, 0x74, 0xfe, 0xff, 0xff,
  0x2c, 0x00, 0x00, 0x00, 0x20, 0x00, 0x00, 0x00, 0x14, 0x00, 0x00, 0x00,
  0x04, 0x00, 0x00, 0x00, 0x01, 0x00, 0x00, 0x00, 0x80, 0xff, 0xff, 0xff,
  0xff, 0xff, 0xff, 0xff, 0x01, 0x00, 0x00, 0x00, 0x6c, 0x80, 0x08, 0x3c,
  0x01, 0x00, 0x00, 0x00, 0xec, 0xf7, 0x07, 0x40, 0x01, 0x00, 0x00, 0x00,
  0x00, 0x00, 0x00, 0x00, 0x1e, 0x00, 0x00, 0x00, 0x73, 0x65, 0x71, 0x75,
  0x65, 0x6e, 0x74, 0x69, 0x61, 0x6c, 0x5f, 0x31, 0x2f, 0x64, 0x65, 0x6e,
  0x73, 0x65, 0x5f, 0x44, 0x65, 0x6e, 0x73, 0x65, 0x31, 0x2f, 0x52, 0x65,
  0x6c, 0x75, 0x00, 0x00, 0x02, 0x00, 0x00, 0x00, 0x01, 0x00, 0x00, 0x00,
  0x32, 0x00, 0x00, 0x00, 0x6a, 0xfe, 0xff, 0xff, 0x00, 0x00, 0x00, 0x02,
  0x60, 0x00, 0x00, 0x00, 0x04, 0x00, 0x00, 0x00, 0x2c, 0x00, 0x00, 0x00,
  0x04, 0x00, 0x00, 0x00, 0x5c, 0xfe, 0xff, 0xff, 0x18, 0x00, 0x00, 0x00,
  0x04, 0x00, 0x00, 0x00, 0x01, 0x00, 0x00, 0x00, 0x00, 0x00, 0x00, 0x00,
  0x00, 0x00, 0x00, 0x00, 0x00, 0x00, 0x00, 0x00, 0x01, 0x00, 0x00, 0x00,
  0x90, 0xdc, 0x94, 0x37, 0x25, 0x00, 0x00, 0x00, 0x73, 0x65, 0x71, 0x75,
  0x65, 0x6e, 0x74, 0x69, 0x61, 0x6c, 0x5f, 0x31, 0x2f, 0x64, 0x65, 0x6e,
  0x73, 0x65, 0x5f, 0x44, 0x65, 0x6e, 0x73, 0x65, 0x31, 0x2f, 0x4d, 0x61,
  0x74, 0x4d, 0x75, 0x6c, 0x5f, 0x62, 0x69, 0x61, 0x73, 0x00, 0x00, 0x00,
  0x01, 0x00, 0x00, 0x00, 0x32, 0x00, 0x00, 0x00, 0xda, 0xfe, 0xff, 0xff,
  0x00, 0x00, 0x00, 0x09, 0x88, 0x00, 0x00, 0x00, 0x09, 0x00, 0x00, 0x00,
  0x40, 0x00, 0x00, 0x00, 0x04, 0x00, 0x00, 0x00, 0x64, 0xff, 0xff, 0xff,
  0x2c, 0x00, 0x00, 0x00, 0x20, 0x00, 0x00, 0x00, 0x14, 0x00, 0x00, 0x00,
  0x04, 0x00, 0x00, 0x00, 0x01, 0x00, 0x00, 0x00, 0x00, 0x00, 0x00, 0x00,
  0x00, 0x00, 0x00, 0x00, 0x01, 0x00, 0x00, 0x00, 0x78, 0x1c, 0x27, 0x3b,
  0x01, 0x00, 0x00, 0x00, 0x77, 0x92, 0x97, 0x3e, 0x01, 0x00, 0x00, 0x00,
  0x3f, 0xce, 0xa5, 0xbe, 0x39, 0x00, 0x00, 0x00, 0x73, 0x65, 0x71, 0x75,
  0x65, 0x6e, 0x74, 0x69, 0x61, 0x6c, 0x5f, 0x31, 0x2f, 0x64, 0x65, 0x6e,
  0x73, 0x65, 0x5f, 0x44, 0x65, 0x6e, 0x73, 0x65, 0x31, 0x2f, 0x4d, 0x61,
  0x74, 0x4d, 0x75, 0x6c, 0x2f, 0x52, 0x65, 0x61, 0x64, 0x56, 0x61, 0x72,
  0x69, 0x61, 0x62, 0x6c, 0x65, 0x4f, 0x70, 0x2f, 0x74, 0x72, 0x61, 0x6e,
  0x73, 0x70, 0x6f, 0x73, 0x65, 0x00, 0x00, 0x00, 0x02, 0x00, 0x00, 0x00,
  0x32, 0x00, 0x00, 0x00, 0x78, 0x00, 0x00, 0x00, 0x76, 0xff, 0xff, 0xff,
  0x00, 0x00, 0x00, 0x09, 0x74, 0x00, 0x00, 0x00, 0x07, 0x00, 0x00, 0x00,
  0x50, 0x00, 0x00, 0x00, 0x10, 0x00, 0x00, 0x00, 0x0c, 0x00, 0x14, 0x00,
  0x04, 0x00, 0x08, 0x00, 0x0c, 0x00, 0x10, 0x00, 0x0c, 0x00, 0x00, 0x00,
  0x30, 0x00, 0x00, 0x00, 0x24, 0x00, 0x00, 0x00, 0x18, 0x00, 0x00, 0x00,
  0x04, 0x00, 0x00, 0x00, 0x01, 0x00, 0x00, 0x00, 0x10, 0x00, 0x00, 0x00,
  0x00, 0x00, 0x00, 0x00, 0x00, 0x00, 0x00, 0x00, 0x01, 0x00, 0x00, 0x00,
  0x0b, 0x0b, 0xe4, 0x3b, 0x01, 0x00, 0x00, 0x00, 0x00, 0x56, 0x46, 0x3f,
  0x01, 0x00, 0x00, 0x00, 0x00, 0xf8, 0x7f, 0xbf, 0x17, 0x00, 0x00, 0x00,
  0x64, 0x65, 0x6e, 0x73, 0x65, 0x5f, 0x44, 0x65, 0x6e, 0x73, 0x65, 0x31,
  0x5f, 0x69, 0x6e, 0x70, 0x75, 0x74, 0x5f, 0x69, 0x6e, 0x74, 0x38, 0x00,
  0x02, 0x00, 0x00, 0x00, 0x01, 0x00, 0x00, 0x00, 0x78, 0x00, 0x00, 0x00,
  0x00, 0x00, 0x0e, 0x00, 0x18, 0x00, 0x08, 0x00, 0x07, 0x00, 0x0c, 0x00,
  0x10, 0x00, 0x14, 0x00, 0x0e, 0x00, 0x00, 0x00, 0x00, 0x00, 0x00, 0x09,
  0x54, 0x00, 0x00, 0x00, 0x05, 0x00, 0x00, 0x00, 0x38, 0x00, 0x00, 0x00,
  0x10, 0x00, 0x00, 0x00, 0x0c, 0x00, 0x0c, 0x00, 0x00, 0x00, 0x00, 0x00,
  0x04, 0x00, 0x08, 0x00, 0x0c, 0x00, 0x00, 0x00, 0x18, 0x00, 0x00, 0x00,
  0x04, 0x00, 0x00, 0x00, 0x01, 0x00, 0x00, 0x00, 0x80, 0xff, 0xff, 0xff,
  0xff, 0xff, 0xff, 0xff, 0x00, 0x00, 0x00, 0x00, 0x01, 0x00, 0x00, 0x00,
  0x00, 0x00, 0x80, 0x3b, 0x0d, 0x00, 0x00, 0x00, 0x49, 0x64, 0x65, 0x6e,
  0x74, 0x69, 0x74, 0x79, 0x5f, 0x69, 0x6e, 0x74, 0x38, 0x00, 0x00, 0x00,
  0x02, 0x00, 0x00, 0x00, 0x01, 0x00, 0x00, 0x00, 0x04, 0x00, 0x00, 0x00,
  0x04, 0x00, 0x00, 0x00, 0x4c, 0x00, 0x00, 0x00, 0x30, 0x00, 0x00, 0x00,
  0x1c, 0x00, 0x00, 0x00, 0x04, 0x00, 0x00, 0x00, 0xe6, 0xff, 0xff, 0xff,
  0x00, 0x00, 0x00, 0x06, 0x02, 0x00, 0x00, 0x00, 0x00, 0x00, 0x06, 0x00,
  0x06, 0x00, 0x05, 0x00, 0x06, 0x00, 0x00, 0x00, 0x00, 0x72, 0x0a, 0x00,
  0x0e, 0x00, 0x07, 0x00, 0x00, 0x00, 0x08, 0x00, 0x0a, 0x00, 0x00, 0x00,
  0x00, 0x00, 0x00, 0x19, 0x02, 0x00, 0x00, 0x00, 0x00, 0x00, 0x0a, 0x00,
  0x0c, 0x00, 0x07, 0x00, 0x00, 0x00, 0x08, 0x00, 0x0a, 0x00, 0x00, 0x00,
  0x00, 0x00, 0x00, 0x09, 0x04, 0x00, 0x00, 0x00

};